#include "magic_wand_model_data.h"


// We need to keep the data array aligned on some architectures.

#ifdef __has_attribute

#define HAVE_ATTRIBUTE(x) __has_attribute(x)

#else

#define HAVE_ATTRIBUTE(x) 0

#endif

#if HAVE_ATTRIBUTE(aligned) || (defined(__GNUC__) && !defined(__clang__))

#define DATA_ALIGN_ATTRIBUTE __attribute__((aligned(4)))

#else

#define DATA_ALIGN_ATTRIBUTE

#endif


const unsigned char g_magic_wand_model_data[] DATA_ALIGN_ATTRIBUTE = {
  0x08, 0x00, 0x00, 0x00, 0x54, 0x46, 0x4c, 0x33, 0x62, 0xff, 0xff, 0xff,
  0x03, 0x00, 0x00, 0x00, 0x10, 0x00, 0x00, 0x00, 0x24, 0x00, 0x00, 0x00,
  0x78, 0x00, 0x00, 0x00, 0x24, 0x00, 0x00, 0x00, 0x05, 0x00, 0x00, 0x00,
  0x78, 0x05, 0x00, 0x00, 0xb0, 0x04, 0x00, 0x00, 0xe0, 0x02, 0x00, 0x00,
  0x60, 0x02, 0x00, 0x00, 0x54, 0x01, 0x00, 0x00, 0x01, 0x00, 0x00, 0x00,
  0x78, 0x00, 0x00, 0x00, 0x13, 0x00, 0x00, 0x00, 0x18, 0x30, 0x00, 0x00,
  0x14, 0x30, 0x00, 0x00, 0x20, 0x2f, 0x00, 0x00, 0xa8, 0x2e, 0x00, 0x00,
  0x3c, 0x2e, 0x00, 0x00, 0xec, 0x11, 0x00, 0x00, 0x98, 0x10, 0x00, 0x00,
  0xbc, 0x0e, 0x00, 0x00, 0x60, 0x06, 0x00, 0x00, 0xfc, 0x05, 0x00, 0x00,
  0x78, 0x05, 0x00, 0x00, 0xec, 0x2f, 0x00, 0x00, 0xe8, 0x2f, 0x00, 0x00,
  0xe4, 0x2f, 0x00, 0x00, 0xe0, 0x2f, 0x00, 0x00, 0xdc, 0x2f, 0x00, 0x00,
  0xd8, 0x2f, 0x00, 0x00, 0xd4, 0x2f, 0x00, 0x00, 0xd0, 0x2f, 0x00, 0x00,
  0x0f, 0x00, 0x00, 0x00, 0x4d, 0x4c, 0x49, 0x52, 0x20, 0x43, 0x6f, 0x6e,
  0x76, 0x65, 0x72, 0x74, 0x65, 0x64, 0x2e, 0x00, 0x00, 0x00, 0x0e, 0x00,
  0x18, 0x00, 0x04, 0x00, 0x08, 0x00, 0x0c, 0x00, 0x10, 0x00, 0x14, 0x00,
  0x0e, 0x00, 0x00, 0x00, 0x14, 0x00, 0x00, 0x00, 0x5c, 0x00, 0x00, 0x00,
  0x60, 0x00, 0x00, 0x00, 0x64, 0x00, 0x00, 0x00, 0x84, 0x00, 0x00, 0x00,
  0x12, 0x00, 0x00, 0x00, 0x48, 0x2f, 0x00, 0x00, 0xe4, 0x2e, 0x00, 0x00,
  0x3c, 0x2e, 0x00, 0x00, 0xd8, 0x2d, 0x00, 0x00, 0x70, 0x2d, 0x00, 0x00,
  0x1c, 0x11, 0x00, 0x00, 0xc0, 0x0f, 0x00, 0x00, 0xe4, 0x0d, 0x00, 0x00,
  0xa0, 0x05, 0x00, 0x00, 0x3c, 0x05, 0x00, 0x00, 0xb0, 0x04, 0x00, 0x00,
  0xe8, 0x03, 0x00, 0x00, 0x38, 0x03, 0x00, 0x00, 0xa4, 0x02, 0x00, 0x00,
  0x10, 0x02, 0x00, 0x00, 0x90, 0x01, 0x00, 0x00, 0xfc, 0x00, 0x00, 0x00,
  0x80, 0x00, 0x00, 0x00, 0x01, 0x00, 0x00, 0x00, 0x00, 0x00, 0x00, 0x00,
  0x01, 0x00, 0x00, 0x00, 0x11, 0x00, 0x00, 0x00, 0x08, 0x00, 0x00, 0x00,
  0x1c, 0x04, 0x00, 0x00, 0x58, 0x03, 0x00, 0x00, 0xc8, 0x02, 0x00, 0x00,
  0x24, 0x02, 0x00, 0x00, 0xac, 0x01, 0x00, 0x00, 0x10, 0x01, 0x00, 0x00,
  0x94, 0x00, 0x00, 0x00, 0x10, 0x00, 0x00, 0x00, 0x04, 0x00, 0x00, 0x00,
  0x6d, 0x61, 0x69, 0x6e, 0x00, 0x00, 0x00, 0x00, 0x8e, 0xff, 0xff, 0xff,
  0x00, 0x00, 0x00, 0x09, 0x04, 0x00, 0x00, 0x00, 0x1c, 0x00, 0x00, 0x00,
  0x10, 0x00, 0x00, 0x00, 0x04, 0x00, 0x00, 0x00, 0x0a, 0xd2, 0xff, 0xff,
  0x00, 0x00, 0x80, 0x3f, 0x01, 0x00, 0x00, 0x00, 0x11, 0x00, 0x00, 0x00,
  0x01, 0x00, 0x00, 0x00, 0x10, 0x00, 0x00, 0x00, 0xf6, 0xfb, 0xff, 0xff,
  0x00, 0x00, 0x00, 0x19, 0x01, 0x00, 0x00, 0x00, 0x8a, 0xd1, 0xff, 0xff,
  0x10, 0x00, 0x00, 0x00, 0x12, 0x00, 0x00, 0x00, 0x14, 0x00, 0x00, 0x00,
  0x20, 0x00, 0x00, 0x00, 0x02, 0x00, 0x00, 0x00, 0x01, 0x00, 0x00, 0x00,
  0x04, 0x00, 0x00, 0x00, 0x08, 0x00, 0x00, 0x00, 0x49, 0x64, 0x65, 0x6e,
  0x74, 0x69, 0x74, 0x79, 0x00, 0x00, 0x00, 0x00, 0xc4, 0xd1, 0xff, 0xff,
  0x00, 0x00, 0x0e, 0x00, 0x18, 0x00, 0x08, 0x00, 0x0c, 0x00, 0x10, 0x00,
  0x07, 0x00, 0x14, 0x00, 0x0e, 0x00, 0x00, 0x00, 0x00, 0x00, 0x00, 0x08,
  0x03, 0x00, 0x00, 0x00, 0x18, 0x00, 0x00, 0x00, 0x0c, 0x00, 0x00, 0x00,
  0x04, 0x00, 0x00, 0x00, 0x98, 0xd1, 0xff, 0xff, 0x01, 0x00, 0x00, 0x00,
  0x10, 0x00, 0x00, 0x00, 0x03, 0x00, 0x00, 0x00, 0x0f, 0x00, 0x00, 0x00,
  0x05, 0x00, 0x00, 0x00, 0x02, 0x00, 0x00, 0x00, 0x02, 0xd2, 0xff, 0xff,
  0x10, 0x00, 0x00, 0x00, 0x11, 0x00, 0x00, 0x00, 0x14, 0x00, 0x00, 0x00,
  0x30, 0x00, 0x00, 0x00, 0x02, 0x00, 0x00, 0x00, 0x01, 0x00, 0x00, 0x00,
  0x04, 0x00, 0x00, 0x00, 0x1a, 0x00, 0x00, 0x00, 0x73, 0x65, 0x71, 0x75,
  0x65, 0x6e, 0x74, 0x69, 0x61, 0x6c, 0x2f, 0x64, 0x65, 0x6e, 0x73, 0x65,
  0x5f, 0x31, 0x2f, 0x42, 0x69, 0x61, 0x73, 0x41, 0x64, 0x64, 0x00, 0x00,
  0xf4, 0xd1, 0xff, 0xff, 0xd6, 0xfd, 0xff, 0xff, 0x00, 0x00, 0x00, 0x08,
  0x03, 0x00, 0x00, 0x00, 0x24, 0x00, 0x00, 0x00, 0x18, 0x00, 0x00, 0x00,
  0x0c, 0x00, 0x00, 0x00, 0x00, 0x00, 0x06, 0x00, 0x08, 0x00, 0x07, 0x00,
  0x06, 0x00, 0x00, 0x00, 0x00, 0x00, 0x00, 0x01, 0x01, 0x00, 0x00, 0x00,
  0x0f, 0x00, 0x00, 0x00, 0x03, 0x00, 0x00, 0x00, 0x0e, 0x00, 0x00, 0x00,
  0x04, 0x00, 0x00, 0x00, 0x01, 0x00, 0x00, 0x00, 0xfe, 0xfc, 0xff, 0xff,
  0x00, 0x00, 0x00, 0x09, 0x01, 0x00, 0x00, 0x00, 0x92, 0xd2, 0xff, 0xff,
  0x10, 0x00, 0x00, 0x00, 0x10, 0x00, 0x00, 0x00, 0x14, 0x00, 0x00, 0x00,
  0x2c, 0x00, 0x00, 0x00, 0x02, 0x00, 0x00, 0x00, 0x01, 0x00, 0x00, 0x00,
  0x10, 0x00, 0x00, 0x00, 0x15, 0x00, 0x00, 0x00, 0x73, 0x65, 0x71, 0x75,
  0x65, 0x6e, 0x74, 0x69, 0x61, 0x6c, 0x2f, 0x64, 0x65, 0x6e, 0x73, 0x65,
  0x2f, 0x52, 0x65, 0x6c, 0x75, 0x00, 0x00, 0x00, 0xd8, 0xd2, 0xff, 0xff,
  0x00, 0x00, 0x0a, 0x00, 0x10, 0x00, 0x04, 0x00, 0x08, 0x00, 0x0c, 0x00,
  0x0a, 0x00, 0x00, 0x00, 0x02, 0x00, 0x00, 0x00, 0x10, 0x00, 0x00, 0x00,
  0x04, 0x00, 0x00, 0x00, 0x01, 0x00, 0x00, 0x00, 0x0e, 0x00, 0x00, 0x00,
  0x02, 0x00, 0x00, 0x00, 0x0d, 0x00, 0x00, 0x00, 0x03, 0x00, 0x00, 0x00,
  0x7a, 0xfd, 0xff, 0xff, 0x00, 0x00, 0x00, 0x16, 0x01, 0x00, 0x00, 0x00,
  0x0e, 0xd3, 0xff, 0xff, 0x10, 0x00, 0x00, 0x00, 0x0f, 0x00, 0x00, 0x00,
  0x14, 0x00, 0x00, 0x00, 0x30, 0x00, 0x00, 0x00, 0x02, 0x00, 0x00, 0x00,
  0x01, 0x00, 0x00, 0x00, 0x70, 0x00, 0x00, 0x00, 0x1a, 0x00, 0x00, 0x00,
  0x73, 0x65, 0x71, 0x75, 0x65, 0x6e, 0x74, 0x69, 0x61, 0x6c, 0x2f, 0x66,
  0x6c, 0x61, 0x74, 0x74, 0x65, 0x6e, 0x2f, 0x52, 0x65, 0x73, 0x68, 0x61,
  0x70, 0x65, 0x00, 0x00, 0x00, 0xd3, 0xff, 0xff, 0xe2, 0xfe, 0xff, 0xff,
  0x00, 0x00, 0x00, 0x05, 0x01, 0x00, 0x00, 0x00, 0x38, 0x00, 0x00, 0x00,
  0x2c, 0x00, 0x00, 0x00, 0x14, 0x00, 0x00, 0x00, 0x00, 0x00, 0x0e, 0x00,
  0x14, 0x00, 0x00, 0x00, 0x10, 0x00, 0x0c, 0x00, 0x08, 0x00, 0x04, 0x00,
  0x0e, 0x00, 0x00, 0x00, 0x03, 0x00, 0x00, 0x00, 0x01, 0x00, 0x00, 0x00,
  0x03, 0x00, 0x00, 0x00, 0x01, 0x00, 0x00, 0x00, 0x01, 0x00, 0x00, 0x00,
  0x0d, 0x00, 0x00, 0x00, 0x01, 0x00, 0x00, 0x00, 0x0c, 0x00, 0x00, 0x00,
  0x9e, 0xd3, 0xff, 0xff, 0x10, 0x00, 0x00, 0x00, 0x0e, 0x00, 0x00, 0x00,
  0x1c, 0x00, 0x00, 0x00, 0x40, 0x00, 0x00, 0x00, 0x04, 0x00, 0x00, 0x00,
  0x01, 0x00, 0x00, 0x00, 0x07, 0x00, 0x00, 0x00, 0x01, 0x00, 0x00, 0x00,
  0x10, 0x00, 0x00, 0x00, 0x22, 0x00, 0x00, 0x00, 0x73, 0x65, 0x71, 0x75,
  0x65, 0x6e, 0x74, 0x69, 0x61, 0x6c, 0x2f, 0x6d, 0x61, 0x78, 0x5f, 0x70,
  0x6f, 0x6f, 0x6c, 0x69, 0x6e, 0x67, 0x32, 0x64, 0x5f, 0x31, 0x2f, 0x4d,
  0x61, 0x78, 0x50, 0x6f, 0x6f, 0x6c, 0x00, 0x00, 0xa0, 0xd3, 0xff, 0xff,
  0xc2, 0xfe, 0xff, 0xff, 0x00, 0x00, 0x00, 0x01, 0x24, 0x00, 0x00, 0x00,
  0x18, 0x00, 0x00, 0x00, 0x04, 0x00, 0x00, 0x00, 0xb4, 0xfe, 0xff, 0xff,
  0x01, 0x00, 0x00, 0x00, 0x01, 0x00, 0x00, 0x00, 0x00, 0x00, 0x00, 0x01,
  0x01, 0x00, 0x00, 0x00, 0x0c, 0x00, 0x00, 0x00, 0x03, 0x00, 0x00, 0x00,
  0x0b, 0x00, 0x00, 0x00, 0x07, 0x00, 0x00, 0x00, 0x09, 0x00, 0x00, 0x00,
  0x2e, 0xd4, 0xff, 0xff, 0x10, 0x00, 0x00, 0x00, 0x0d, 0x00, 0x00, 0x00,
  0x1c, 0x00, 0x00, 0x00, 0x2c, 0x00, 0x00, 0x00, 0x04, 0x00, 0x00, 0x00,
  0x01, 0x00, 0x00, 0x00, 0x15, 0x00, 0x00, 0x00, 0x01, 0x00, 0x00, 0x00,
  0x10, 0x00, 0x00, 0x00, 0x0c, 0x00, 0x00, 0x00, 0x74, 0x66, 0x6c, 0x2e,
  0x63, 0x6f, 0x6e, 0x76, 0x5f, 0x32, 0x64, 0x31, 0x00, 0x00, 0x00, 0x00,
  0x74, 0xd4, 0xff, 0xff, 0x00, 0x00, 0x0e, 0x00, 0x1a, 0x00, 0x08, 0x00,
  0x0c, 0x00, 0x10, 0x00, 0x07, 0x00, 0x14, 0x00, 0x0e, 0x00, 0x00, 0x00,
  0x00, 0x00, 0x00, 0x05, 0x01, 0x00, 0x00, 0x00, 0x3c, 0x00, 0x00, 0x00,
  0x30, 0x00, 0x00, 0x00, 0x14, 0x00, 0x00, 0x00, 0x00, 0x00, 0x0e, 0x00,
  0x18, 0x00, 0x17, 0x00, 0x10, 0x00, 0x0c, 0x00, 0x08, 0x00, 0x04, 0x00,
  0x0e, 0x00, 0x00, 0x00, 0x03, 0x00, 0x00, 0x00, 0x03, 0x00, 0x00, 0x00,
  0x03, 0x00, 0x00, 0x00, 0x03, 0x00, 0x00, 0x00, 0x00, 0x00, 0x00, 0x01,
  0x01, 0x00, 0x00, 0x00, 0x0b, 0x00, 0x00, 0x00, 0x01, 0x00, 0x00, 0x00,
  0x0a, 0x00, 0x00, 0x00, 0x46, 0xff, 0xff, 0xff, 0x00, 0x00, 0x00, 0x11,
  0x01, 0x00, 0x00, 0x00, 0xda, 0xd4, 0xff, 0xff, 0x10, 0x00, 0x00, 0x00,
  0x0c, 0x00, 0x00, 0x00, 0x1c, 0x00, 0x00, 0x00, 0x40, 0x00, 0x00, 0x00,
  0x04, 0x00, 0x00, 0x00, 0x01, 0x00, 0x00, 0x00, 0x15, 0x00, 0x00, 0x00,
  0x01, 0x00, 0x00, 0x00, 0x08, 0x00, 0x00, 0x00, 0x20, 0x00, 0x00, 0x00,
  0x73, 0x65, 0x71, 0x75, 0x65, 0x6e, 0x74, 0x69, 0x61, 0x6c, 0x2f, 0x6d,
  0x61, 0x78, 0x5f, 0x70, 0x6f, 0x6f, 0x6c, 0x69, 0x6e, 0x67, 0x32, 0x64,
  0x2f, 0x4d, 0x61, 0x78, 0x50, 0x6f, 0x6f, 0x6c, 0x00, 0x00, 0x00, 0x00,
  0x34, 0xd5, 0xff, 0xff, 0x00, 0x00, 0x0e, 0x00, 0x14, 0x00, 0x00, 0x00,
  0x08, 0x00, 0x0c, 0x00, 0x07, 0x00, 0x10, 0x00, 0x0e, 0x00, 0x00, 0x00,
  0x00, 0x00, 0x00, 0x01, 0x30, 0x00, 0x00, 0x00, 0x24, 0x00, 0x00, 0x00,
  0x10, 0x00, 0x00, 0x00, 0x0c, 0x00, 0x10, 0x00, 0x00, 0x00, 0x04, 0x00,
  0x08, 0x00, 0x0f, 0x00, 0x0c, 0x00, 0x00, 0x00, 0x01, 0x00, 0x00, 0x00,
  0x01, 0x00, 0x00, 0x00, 0x00, 0x00, 0x00, 0x01, 0x01, 0x00, 0x00, 0x00,
  0x0a, 0x00, 0x00, 0x00, 0x03, 0x00, 0x00, 0x00, 0x00, 0x00, 0x00, 0x00,
  0x06, 0x00, 0x00, 0x00, 0x08, 0x00, 0x00, 0x00, 0x00, 0x00, 0x0a, 0x00,
  0x0c, 0x00, 0x07, 0x00, 0x00, 0x00, 0x08, 0x00, 0x0a, 0x00, 0x00, 0x00,
  0x00, 0x00, 0x00, 0x03, 0x01, 0x00, 0x00, 0x00, 0x9e, 0xd5, 0xff, 0xff,
  0x10, 0x00, 0x00, 0x00, 0x0b, 0x00, 0x00, 0x00, 0x1c, 0x00, 0x00, 0x00,
  0x28, 0x00, 0x00, 0x00, 0x04, 0x00, 0x00, 0x00, 0x01, 0x00, 0x00, 0x00,
  0x40, 0x00, 0x00, 0x00, 0x03, 0x00, 0x00, 0x00, 0x08, 0x00, 0x00, 0x00,
  0x0b, 0x00, 0x00, 0x00, 0x74, 0x66, 0x6c, 0x2e, 0x63, 0x6f, 0x6e, 0x76,
  0x5f, 0x32, 0x64, 0x00, 0x88, 0xd5, 0xff, 0xff, 0x7e, 0xd6, 0xff, 0xff,
  0x04, 0x00, 0x00, 0x00, 0x40, 0x00, 0x00, 0x00, 0x0e, 0x8f, 0x04, 0x40,
  0xb7, 0xfe, 0xcd, 0xbf, 0x81, 0x63, 0x83, 0x3c, 0xf4, 0x2e, 0x71, 0x3e,
  0x55, 0x72, 0x9d, 0xbf, 0x3f, 0x5a, 0x53, 0x40, 0x46, 0x42, 0x16, 0xc0,
  0x54, 0x03, 0x16, 0xc0, 0xba, 0x15, 0x55, 0xbf, 0xad, 0x72, 0xdf, 0x3c,
  0xb0, 0x85, 0x56, 0xbf, 0xe4, 0x6d, 0xf6, 0xbf, 0x05, 0xb1, 0xc3, 0xbd,
  0xb0, 0xf9, 0x90, 0x3c, 0xc8, 0xa7, 0x36, 0xbb, 0x2d, 0xdc, 0x28, 0xbf,
  0x26, 0xd6, 0xff, 0xff, 0x10, 0x00, 0x00, 0x00, 0x0a, 0x00, 0x00, 0x00,
  0x10, 0x00, 0x00, 0x00, 0x20, 0x00, 0x00, 0x00, 0x01, 0x00, 0x00, 0x00,
  0x10, 0x00, 0x00, 0x00, 0x0d, 0x00, 0x00, 0x00, 0x73, 0x74, 0x64, 0x2e,
  0x63, 0x6f, 0x6e, 0x73, 0x74, 0x61, 0x6e, 0x74, 0x31, 0x00, 0x00, 0x00,
  0x08, 0xd6, 0xff, 0xff, 0xfe, 0xd6, 0xff, 0xff, 0x04, 0x00, 0x00, 0x00,
  0x20, 0x00, 0x00, 0x00, 0x50, 0x1b, 0xbd, 0xbf, 0x27, 0x55, 0x84, 0xbf,
  0x8f, 0x92, 0x60, 0xc0, 0xf5, 0xba, 0x7c, 0xbf, 0xbd, 0x8c, 0x0d, 0xc0,
  0x76, 0x7b, 0x34, 0xbf, 0xf6, 0x97, 0xc2, 0xbf, 0x35, 0xb8, 0x9c, 0xbf,
  0x86, 0xd6, 0xff, 0xff, 0x10, 0x00, 0x00, 0x00, 0x09, 0x00, 0x00, 0x00,
  0x10, 0x00, 0x00, 0x00, 0x20, 0x00, 0x00, 0x00, 0x01, 0x00, 0x00, 0x00,
  0x08, 0x00, 0x00, 0x00, 0x0c, 0x00, 0x00, 0x00, 0x73, 0x74, 0x64, 0x2e,
  0x63, 0x6f, 0x6e, 0x73, 0x74, 0x61, 0x6e, 0x74, 0x00, 0x00, 0x00, 0x00,
  0x68, 0xd6, 0xff, 0xff, 0x5e, 0xd7, 0xff, 0xff, 0x04, 0x00, 0x00, 0x00,
  0x00, 0x08, 0x00, 0x00, 0x04, 0x33, 0xac, 0xbc, 0xeb, 0x2e, 0xe4, 0xbe,
  0x6b, 0x22, 0x1e, 0xbc, 0xe7, 0x36, 0x55, 0xbc, 0x6e, 0xef, 0xcc, 0xbd,
  0xc0, 0xc6, 0x66, 0xbd, 0x54, 0x72, 0xd3, 0xbd, 0xee, 0xac, 0xae, 0xba,
  0x2e, 0x88, 0x51, 0x3e, 0xdf, 0xa7, 0x24, 0xbb, 0x83, 0x44, 0xb0, 0x3d,
  0xb6, 0x65, 0xbc, 0x3c, 0x58, 0x05, 0xf3, 0x3c, 0x04, 0xbc, 0x28, 0xbc,
  0x51, 0xa7, 0x61, 0x3b, 0x18, 0x34, 0xa7, 0x3e, 0x9f, 0x4d, 0xc3, 0xbd,
  0x51, 0x40, 0x4b, 0x3e, 0x8c, 0xe6, 0xb5, 0xbd, 0x91, 0x79, 0x6f, 0xbf,
  0x58, 0x4f, 0x92, 0xbc, 0x59, 0xaa, 0xcc, 0xbd, 0xa8, 0xc2, 0xf1, 0x3d,
  0x6a, 0x33, 0x6a, 0xbe, 0xc8, 0xb8, 0x64, 0xbe, 0x1f, 0xcf, 0x7b, 0x3e,
  0xfc, 0x57, 0x19, 0xbe, 0x22, 0x08, 0x93, 0xbe, 0x5a, 0xe3, 0xa3, 0xbe,
  0xc0, 0xaf, 0x3f, 0x3b, 0x0d, 0x8b, 0x13, 0xbe, 0x61, 0x98, 0xa3, 0xbe,
  0x6f, 0xf1, 0xbf, 0xbd, 0x16, 0x81, 0x7c, 0xbf, 0x07, 0x77, 0x96, 0xbd,
  0x38, 0x77, 0x2c, 0x3f, 0xef, 0x2e, 0x20, 0xbe, 0x16, 0x22, 0x31, 0xbd,
  0x22, 0x5f, 0x05, 0xbe, 0x47, 0xc2, 0x9f, 0x3b, 0x9d, 0xfb, 0x04, 0xbd,
  0xe3, 0x4a, 0x28, 0xbb, 0xa3, 0x01, 0x74, 0xba, 0x9f, 0xfe, 0xf4, 0x3b,
  0x38, 0x66, 0x98, 0x3e, 0x44, 0x0a, 0x21, 0xbd, 0xbd, 0xa5, 0xaf, 0x3c,
  0x62, 0x15, 0xd1, 0x3d, 0xba, 0xa5, 0x02, 0xbd, 0x43, 0xf0, 0xbf, 0x3e,
  0xfc, 0xd5, 0x27, 0xbc, 0xe7, 0x53, 0x81, 0xbd, 0x6d, 0x38, 0xa6, 0xbd,
  0x3d, 0xee, 0x58, 0xbc, 0xb2, 0x30, 0x8f, 0xbc, 0x9b, 0x53, 0x13, 0xbd,
  0x27, 0x08, 0x89, 0x3b, 0xef, 0x03, 0xb8, 0xbe, 0x62, 0xdb, 0x90, 0xbb,
  0x4a, 0x2e, 0xf3, 0xbe, 0xe0, 0xbb, 0x2c, 0xbd, 0xc3, 0x33, 0xa4, 0xbd,
  0xd9, 0xdd, 0xba, 0xbe, 0x27, 0xab, 0xf7, 0xbc, 0xba, 0xcf, 0xdf, 0xbe,
  0x6d, 0x8c, 0xd7, 0x3c, 0x8c, 0x70, 0x20, 0xbe, 0x0f, 0x69, 0x2a, 0x3e,
  0x82, 0x01, 0xfd, 0xbd, 0xbe, 0x44, 0x36, 0x3d, 0xb0, 0xc8, 0xa1, 0x3e,
  0x09, 0xb6, 0x9e, 0x3d, 0xe4, 0x8e, 0x0a, 0xbf, 0x1c, 0xe8, 0x56, 0x3e,
  0x95, 0xff, 0x28, 0xbe, 0xaa, 0x5a, 0x71, 0xbd, 0xef, 0xae, 0x43, 0xbe,
  0x70, 0x38, 0xee, 0x3d, 0x57, 0x12, 0x8c, 0x3d, 0xa5, 0xb8, 0xfa, 0x3a,
  0x07, 0x71, 0x52, 0xbf, 0x3e, 0x16, 0x70, 0x3e, 0x9a, 0x5d, 0x41, 0xbe,
  0xe0, 0xce, 0xa5, 0xbd, 0x5f, 0xef, 0x82, 0xbe, 0x53, 0xf5, 0x20, 0xbe,
  0xcd, 0xcb, 0x03, 0x3e, 0x68, 0x0e, 0x5e, 0xbe, 0x2f, 0xb0, 0x1d, 0xbf,
  0xde, 0x5e, 0x50, 0x3d, 0xe1, 0x76, 0x84, 0x3e, 0x5a, 0x6d, 0x3b, 0xbe,
  0x65, 0xa9, 0xa5, 0xbb, 0x65, 0x24, 0x3d, 0xbe, 0xf6, 0x2d, 0x96, 0xbe,
  0x0c, 0xc9, 0x76, 0xbe, 0xa3, 0x91, 0xdf, 0x3d, 0x3a, 0x02, 0x48, 0xbd,
  0xfa, 0xd0, 0x95, 0xbc, 0x0d, 0x4f, 0xbc, 0x3d, 0x6b, 0x46, 0xcd, 0x3d,
  0xd7, 0xd1, 0x03, 0xbe, 0x46, 0xd1, 0x12, 0xbe, 0xb2, 0xbc, 0x84, 0x3d,
  0xd3, 0xed, 0x5d, 0xbd, 0x26, 0xfe, 0x2d, 0xbc, 0xb1, 0x52, 0xb9, 0x3e,
  0x64, 0xd2, 0x16, 0x3d, 0x67, 0xa4, 0x1f, 0x3e, 0x6f, 0x5f, 0x0a, 0xbe,
  0x62, 0xe1, 0xd1, 0xbd, 0x39, 0xa3, 0xdb, 0xbb, 0x88, 0x3c, 0x5a, 0xbe,
  0xab, 0x5c, 0x1d, 0xbc, 0xff, 0xa1, 0x84, 0xbd, 0x3e, 0xc2, 0x8a, 0xbe,
  0x63, 0x1f, 0xcd, 0x3e, 0xa0, 0x31, 0x99, 0xbe, 0x92, 0x38, 0x1c, 0xbd,
  0xd9, 0x77, 0x73, 0xbe, 0x0f, 0xa2, 0x55, 0xbe, 0x82, 0x68, 0x40, 0x3d,
  0x6f, 0x35, 0x84, 0xbe, 0xdd, 0x82, 0x97, 0x3d, 0x15, 0x2a, 0x4e, 0xbf,
  0x76, 0x00, 0xe4, 0xbe, 0xda, 0xd3, 0xac, 0x3d, 0xc9, 0x51, 0x63, 0xbf,
  0x36, 0x9a, 0xaa, 0xbd, 0xbe, 0x39, 0xbf, 0xbe, 0x7f, 0x07, 0x99, 0xbc,
  0x8c, 0xcd, 0xe5, 0xbc, 0x18, 0x27, 0xe9, 0xbc, 0x2a, 0x3f, 0xa7, 0xbe,
  0x64, 0xc3, 0xa0, 0xbe, 0x24, 0x9c, 0x5b, 0xbd, 0xfb, 0xf3, 0xaa, 0xbd,
  0x91, 0xe1, 0x70, 0xbe, 0x2b, 0x74, 0x1c, 0xbd, 0xb1, 0xaf, 0x75, 0x3e,
  0xff, 0xef, 0x12, 0x3f, 0xc5, 0xc2, 0x11, 0xbe, 0xf9, 0xdb, 0x3d, 0xbe,
  0xe0, 0x40, 0x84, 0x3d, 0x75, 0x1d, 0x87, 0xbd, 0x5a, 0x18, 0x85, 0x3d,
  0xcc, 0x4b, 0x9a, 0xbc, 0x68, 0x99, 0x4d, 0x3e, 0xe7, 0x33, 0xe5, 0xbd,
  0xb1, 0xfc, 0x3c, 0xbe, 0x0e, 0xc2, 0x4d, 0xbd, 0xb0, 0x02, 0x44, 0xbc,
  0x77, 0x30, 0xc1, 0xbd, 0x58, 0xcb, 0x82, 0x3e, 0xed, 0xbc, 0xec, 0xbc,
  0xde, 0x2f, 0x8b, 0x3d, 0x2a, 0x2c, 0xe7, 0x3d, 0xfa, 0x97, 0x87, 0xbe,
  0xa8, 0x0b, 0xb2, 0xbd, 0x05, 0xf1, 0x9c, 0xbc, 0x0e, 0x60, 0xe9, 0x3d,
  0x65, 0x36, 0x82, 0xbe, 0xe8, 0x56, 0xec, 0xbd, 0x9f, 0x22, 0x97, 0xbe,
  0x03, 0x9f, 0xfc, 0xbd, 0x81, 0x5a, 0x4b, 0xbe, 0xfb, 0x3b, 0x0e, 0xbf,
  0x3a, 0x0a, 0x98, 0xbc, 0xff, 0xe7, 0x8b, 0x3e, 0x48, 0x0e, 0x74, 0x3d,
  0xd3, 0x1e, 0x19, 0xbf, 0x75, 0xe2, 0x34, 0x3c, 0xf3, 0x91, 0x48, 0xbd,
  0xa4, 0x86, 0x31, 0x3d, 0xcd, 0x9d, 0xef, 0x3d, 0xd3, 0x4f, 0x1b, 0xbf,
  0x4c, 0x23, 0xcb, 0xbe, 0xbd, 0xb0, 0x0b, 0xbe, 0x77, 0x52, 0x86, 0xbd,
  0xc7, 0x10, 0x60, 0xbe, 0x52, 0xa4, 0xc1, 0x3d, 0xd9, 0xae, 0x4e, 0x3b,
  0x2d, 0x05, 0x51, 0xbe, 0x0c, 0x2e, 0xa6, 0xbe, 0x07, 0x1f, 0x83, 0xbe,
  0xa5, 0x2c, 0xa9, 0xbd, 0x16, 0x87, 0x1d, 0xbe, 0x6b, 0xc0, 0x91, 0xbc,
  0xfc, 0x34, 0x1b, 0xbd, 0x65, 0x8f, 0x31, 0xbd, 0xfd, 0x35, 0xb0, 0xbc,
  0xdc, 0xb1, 0x08, 0xbe, 0x7f, 0x80, 0x05, 0xbc, 0x2d, 0x59, 0x6d, 0xbd,
  0xd5, 0xb1, 0x27, 0xbe, 0x53, 0x53, 0x84, 0x3e, 0x4f, 0x83, 0x69, 0xbe,
  0x07, 0x99, 0x72, 0xbe, 0x71, 0x19, 0xe4, 0xbb, 0x2d, 0x4a, 0x44, 0xbe,
  0x67, 0x86, 0xd0, 0xbd, 0x26, 0x61, 0x04, 0xbf, 0xe2, 0xdf, 0x05, 0xbe,
  0x39, 0x05, 0xb9, 0xbd, 0xea, 0x5e, 0x29, 0xbe, 0x79, 0xc7, 0x87, 0xbe,
  0x8d, 0x80, 0x31, 0xbd, 0x0c, 0xf7, 0xb7, 0xbd, 0x69, 0xdf, 0x6c, 0xbd,
  0x68, 0x33, 0x51, 0x3d, 0xff, 0x20, 0xc9, 0xbd, 0xf4, 0x89, 0x08, 0xbd,
  0x08, 0xb5, 0x47, 0xbc, 0x49, 0x0b, 0x07, 0xbe, 0x80, 0x62, 0x57, 0x3e,
  0x86, 0xd7, 0xb8, 0x3c, 0xca, 0xee, 0x0f, 0xbb, 0xce, 0x47, 0x3b, 0x3e,
  0x1a, 0x42, 0xb6, 0x3e, 0x17, 0xce, 0xe4, 0xbc, 0xdd, 0x2f, 0x26, 0x3e,
  0xf4, 0x6c, 0x15, 0x3a, 0xa3, 0x9a, 0x31, 0x3e, 0x4f, 0x3a, 0x9f, 0x3e,
  0x58, 0x90, 0x96, 0xbd, 0x1c, 0xf6, 0xe2, 0x3d, 0xef, 0xe6, 0x72, 0x3e,
  0xeb, 0x0f, 0x66, 0xbc, 0xef, 0x6a, 0x09, 0xbe, 0xce, 0xa9, 0x72, 0x3d,
  0xbe, 0xb2, 0x5a, 0x3d, 0x6f, 0x41, 0xd3, 0xbe, 0xcd, 0xad, 0x1b, 0x3e,
  0xe7, 0x36, 0x35, 0xbe, 0x6f, 0x15, 0x26, 0xbe, 0x2f, 0x9d, 0xfa, 0x3d,
  0xe9, 0x54, 0x46, 0xbe, 0x99, 0xe2, 0x22, 0xbe, 0xd2, 0xe5, 0x2a, 0x3e,
  0x50, 0x3e, 0xf0, 0xbe, 0x73, 0xce, 0xc2, 0x3d, 0x58, 0x59, 0xa0, 0xbe,
  0x8f, 0x9d, 0x3a, 0xbe, 0x3e, 0xfd, 0xf8, 0x3d, 0x35, 0xf3, 0x1f, 0xbe,
  0x66, 0x81, 0x05, 0xbe, 0xc2, 0x9e, 0x1d, 0x3e, 0x2c, 0x8f, 0x0d, 0xbe,
  0x24, 0x3f, 0xb4, 0xbd, 0xca, 0xb4, 0xc1, 0xbd, 0x07, 0x73, 0x09, 0xbe,
  0x91, 0xb5, 0x53, 0x3b, 0x52, 0xe8, 0x36, 0xbe, 0x4e, 0x87, 0x41, 0xbe,
  0x05, 0x6f, 0x2a, 0x3e, 0xca, 0xce, 0xe9, 0x3e, 0xbf, 0x44, 0xa5, 0xbd,
  0x0e, 0x0c, 0xc9, 0x3c, 0x90, 0x2d, 0x93, 0x3d, 0x9a, 0xd8, 0xf7, 0xbb,
  0x8c, 0xc9, 0xbf, 0x3d, 0x72, 0x25, 0xaa, 0xbd, 0xb2, 0x93, 0xc4, 0x3b,
  0xe3, 0xab, 0x0b, 0x3e, 0x49, 0x8c, 0x8f, 0xbd, 0xfa, 0xa8, 0x4b, 0x3d,
  0xa8, 0xa1, 0xef, 0xbb, 0xa9, 0xf7, 0x0a, 0x3e, 0x5e, 0x4d, 0x8c, 0x3d,
  0x5b, 0x8b, 0x0d, 0xbd, 0x28, 0xa2, 0xcd, 0xbb, 0x29, 0xac, 0xa7, 0xbd,
  0x13, 0x5c, 0xe9, 0x3d, 0x00, 0x22, 0x19, 0xbe, 0x73, 0xa1, 0xa9, 0xbc,
  0x58, 0x87, 0x63, 0x3c, 0x29, 0x7b, 0x0e, 0xbe, 0x48, 0x10, 0x3e, 0xbd,
  0x08, 0x16, 0xf2, 0x3e, 0x23, 0xca, 0x12, 0xbe, 0xfa, 0x69, 0xeb, 0x3a,
  0x56, 0xe8, 0x18, 0x3c, 0xdb, 0x82, 0x73, 0xbc, 0x8e, 0x2d, 0x11, 0x3e,
  0x41, 0x39, 0x94, 0xbd, 0xf8, 0x46, 0x67, 0x3c, 0x71, 0x4e, 0x30, 0x3e,
  0xda, 0xec, 0x15, 0xbe, 0x66, 0x03, 0x23, 0xbf, 0x1a, 0x39, 0x94, 0xbc,
  0x26, 0x38, 0x45, 0xbe, 0x00, 0x83, 0x2b, 0x3e, 0xf8, 0xfd, 0x07, 0xbe,
  0x1a, 0xa7, 0x24, 0xbd, 0xd6, 0x56, 0x97, 0xbc, 0x53, 0xcd, 0xd7, 0xbb,
  0x8d, 0xbd, 0x0b, 0xbf, 0x1a, 0xff, 0x3c, 0xbd, 0xfc, 0x8f, 0xc2, 0xbe,
  0xe1, 0x8f, 0x46, 0x3e, 0x8b, 0x8a, 0xee, 0x3d, 0x0e, 0x67, 0x80, 0x3d,
  0xb4, 0x59, 0xb5, 0x3d, 0xbd, 0xaa, 0xac, 0x3d, 0x75, 0x2a, 0x20, 0xbf,
  0x57, 0xe9, 0x17, 0x3d, 0x6d, 0x57, 0xdc, 0xbe, 0xbc, 0xfe, 0xdd, 0x3d,
  0x57, 0x0c, 0x4a, 0xbd, 0xfc, 0x85, 0x53, 0xbd, 0x9b, 0x96, 0xde, 0x3e,
  0x55, 0xaa, 0x42, 0xbe, 0x56, 0xa3, 0x0b, 0xbf, 0x1c, 0xdc, 0x54, 0x3d,
  0xa9, 0x55, 0x42, 0xbe, 0xa1, 0xd1, 0xbf, 0xbd, 0x32, 0x53, 0x05, 0x3e,
  0x4b, 0xcf, 0xc2, 0xbd, 0x3e, 0x6d, 0x22, 0x3e, 0xda, 0x83, 0x8c, 0xbd,
  0x31, 0xb2, 0xc1, 0xbe, 0x7d, 0x38, 0x2e, 0x3d, 0x94, 0xa0, 0x51, 0xbe,
  0x3c, 0x9d, 0x32, 0x3a, 0x8c, 0x66, 0x9f, 0xbe, 0xfb, 0xe0, 0xd1, 0xbd,
  0xcd, 0xb8, 0x82, 0x3d, 0x6b, 0x5f, 0x73, 0xbe, 0x1b, 0xfc, 0x89, 0xbe,
  0x67, 0xfa, 0xaf, 0x3d, 0x06, 0xd0, 0x4b, 0xbd, 0x62, 0x5e, 0xcd, 0xbd,
  0xce, 0xa5, 0xae, 0xbe, 0x88, 0xda, 0xd9, 0xbd, 0x95, 0x27, 0x22, 0x3d,
  0xa3, 0x09, 0x31, 0xbe, 0x11, 0x6f, 0x88, 0x3d, 0x39, 0x37, 0x72, 0x3e,
  0x1c, 0x52, 0xb8, 0xbe, 0x45, 0xfb, 0x81, 0x3e, 0x6a, 0x42, 0x86, 0xbe,
  0xfd, 0x3c, 0x51, 0x3d, 0x8e, 0xdb, 0x40, 0x3e, 0xfa, 0x15, 0x70, 0xbe,
  0x72, 0x5c, 0x24, 0x3d, 0x8f, 0xbd, 0xa8, 0xbe, 0xa2, 0xa8, 0xa4, 0xbe,
  0x86, 0xc4, 0x9d, 0x3e, 0x9b, 0xb2, 0x9b, 0xbc, 0x9e, 0x70, 0x38, 0x3d,
  0x40, 0x8d, 0x2a, 0xbd, 0x84, 0x99, 0x44, 0xbe, 0xf2, 0x3b, 0x00, 0xbf,
  0x76, 0xdd, 0x4a, 0xbb, 0xab, 0xb9, 0xea, 0xbd, 0x07, 0xb9, 0x7d, 0xbe,
  0x03, 0x64, 0xa5, 0xbe, 0xbc, 0xd1, 0x4f, 0xbe, 0x00, 0x42, 0x33, 0xbe,
  0x24, 0x73, 0xc8, 0x3d, 0xed, 0xf0, 0x15, 0xbf, 0x13, 0x1c, 0x82, 0x3c,
  0x6e, 0x8e, 0x40, 0x3e, 0x46, 0xc6, 0xac, 0xbe, 0xcf, 0x67, 0xef, 0xbe,
  0xcf, 0x8b, 0xf3, 0xbe, 0x27, 0x89, 0x96, 0x3c, 0x64, 0x01, 0xf5, 0xbd,
  0xbd, 0xc8, 0x1a, 0x3e, 0xe1, 0x50, 0xf7, 0x3d, 0x6c, 0x8f, 0x7f, 0xbb,
  0x24, 0x2b, 0xb2, 0x3d, 0x48, 0xb7, 0xbc, 0xbe, 0x2e, 0x78, 0x80, 0xbe,
  0x0a, 0x0b, 0xbc, 0x3e, 0xdd, 0x93, 0xad, 0xbe, 0x63, 0x14, 0xca, 0x3e,
  0xad, 0x08, 0xbf, 0xbe, 0xdc, 0x4c, 0xa2, 0xbe, 0x59, 0x32, 0xb2, 0x3d,
  0xe3, 0x39, 0x7b, 0xbe, 0xbe, 0xe4, 0x86, 0xbe, 0x49, 0x29, 0xcf, 0x3d,
  0x84, 0x84, 0xc0, 0xbe, 0xd7, 0x0d, 0x8b, 0xbd, 0x20, 0x42, 0x29, 0xbe,
  0xec, 0x34, 0x3f, 0xbe, 0x0d, 0x6b, 0x8b, 0xbe, 0xff, 0x8c, 0xf0, 0xbb,
  0x53, 0x7c, 0xcc, 0xbc, 0xa7, 0x1c, 0xae, 0xbe, 0xe7, 0x72, 0x99, 0xbd,
  0x5f, 0xc9, 0x28, 0xbb, 0xbe, 0xe7, 0x3c, 0xbe, 0x0f, 0xf8, 0x53, 0xbe,
  0x98, 0x8c, 0x0d, 0xbd, 0x0b, 0xbe, 0x87, 0x3d, 0x69, 0xa8, 0x8a, 0xbc,
  0x3e, 0x9d, 0x3d, 0xbe, 0x41, 0xfa, 0xd8, 0x3d, 0xcb, 0x67, 0x23, 0xbd,
  0x2e, 0x4b, 0x7b, 0xbe, 0x56, 0x33, 0x4c, 0xbe, 0xd1, 0x4a, 0xca, 0xbe,
  0x8f, 0x07, 0x67, 0xbd, 0x94, 0x9c, 0xa6, 0x3c, 0xaf, 0xba, 0xff, 0xbe,
  0xd7, 0xde, 0x06, 0xbd, 0x2c, 0x63, 0x85, 0x3d, 0x3e, 0x56, 0x16, 0xbe,
  0x10, 0xa2, 0xa9, 0xbd, 0xfc, 0x54, 0x90, 0x3e, 0x92, 0x41, 0x94, 0x3e,
  0x86, 0x21, 0x1d, 0x3e, 0x01, 0x9f, 0x86, 0xbd, 0x50, 0xda, 0x1a, 0x3e,
  0x78, 0x01, 0x86, 0xbd, 0x9e, 0xd7, 0xd5, 0xbb, 0x80, 0x06, 0xa3, 0xbd,
  0x94, 0x99, 0x89, 0xbc, 0x9c, 0xae, 0x07, 0x3e, 0xd2, 0x39, 0xdb, 0xbc,
  0xf2, 0x42, 0xa3, 0x3c, 0x8a, 0xa4, 0xf5, 0xbc, 0x6b, 0x68, 0x7c, 0xbd,
  0x53, 0x39, 0x23, 0xbd, 0x10, 0xfd, 0x0e, 0xbe, 0x4c, 0x7d, 0x2b, 0x3d,
  0x7d, 0xdc, 0x48, 0x3e, 0xac, 0xc7, 0x06, 0xbd, 0x1f, 0x99, 0x11, 0x3d,
  0x2e, 0x26, 0x99, 0xbd, 0x21, 0x43, 0x02, 0xbe, 0x3b, 0xee, 0xe3, 0x3e,
  0x02, 0x68, 0x43, 0xbe, 0x8a, 0x5c, 0xd0, 0x3d, 0x7f, 0xe9, 0x99, 0x3d,
  0x15, 0xa7, 0x19, 0xbd, 0x29, 0xe5, 0x62, 0x3d, 0x97, 0xe6, 0xdc, 0xbd,
  0x35, 0xc3, 0x52, 0xbd, 0x79, 0xb9, 0x6c, 0xbd, 0x8e, 0xc2, 0x1d, 0xbe,
  0x8b, 0x14, 0x80, 0x3c, 0x79, 0x61, 0xd4, 0x3e, 0x0e, 0xcf, 0x18, 0xbc,
  0xfc, 0x87, 0xb9, 0xbd, 0x54, 0x38, 0xb8, 0xbd, 0x15, 0xec, 0x77, 0x3b,
  0xa7, 0xe1, 0x6e, 0xbe, 0x27, 0xe4, 0x6a, 0xbe, 0x47, 0x71, 0xff, 0xbe,
  0x0a, 0xe5, 0x61, 0xb9, 0x32, 0xc3, 0xd6, 0x3d, 0x57, 0x68, 0xf5, 0xbe,
  0x2d, 0x83, 0x84, 0x3e, 0xd1, 0x86, 0x95, 0xbd, 0x8e, 0xdb, 0x60, 0xbe,
  0x62, 0x01, 0xb5, 0xbd, 0x6f, 0xc9, 0xca, 0xbd, 0x7b, 0xa5, 0x45, 0x3e,
  0x85, 0x85, 0x47, 0x3d, 0x9a, 0x8b, 0xcf, 0x3d, 0x11, 0x20, 0xbb, 0x3d,
  0xac, 0x55, 0x1f, 0xbe, 0xea, 0x2f, 0x39, 0xbd, 0xb8, 0x86, 0x10, 0xbe,
  0xd5, 0xb3, 0x59, 0xbe, 0x57, 0x7d, 0xb7, 0xbe, 0xfc, 0x63, 0x82, 0xbe,
  0xeb, 0x52, 0x12, 0xbf, 0xf0, 0x88, 0xc8, 0xbe, 0xe1, 0x5c, 0xa6, 0x3e,
  0xbe, 0xba, 0xd6, 0xbe, 0x92, 0x48, 0xda, 0xbd, 0x7f, 0x8b, 0xa6, 0xbd,
  0x4d, 0x7b, 0xaf, 0xbe, 0x7c, 0x17, 0x73, 0xbe, 0x55, 0xc5, 0x09, 0xbe,
  0x50, 0xde, 0x1b, 0xbe, 0x0a, 0x37, 0xcf, 0xbd, 0x8d, 0x15, 0xf4, 0xbe,
  0xe2, 0x2a, 0xa6, 0xbd, 0x4d, 0x53, 0x81, 0xbc, 0xc4, 0x73, 0x11, 0xbe,
  0xa1, 0x00, 0x2c, 0xbe, 0x6c, 0xe5, 0x3a, 0xbd, 0xf1, 0x80, 0x1d, 0xbe,
  0x73, 0x9e, 0x87, 0x3d, 0x5b, 0xda, 0xfc, 0x3d, 0xf7, 0x00, 0x17, 0xbd,
  0x90, 0xc0, 0x9f, 0x3d, 0x99, 0x65, 0x39, 0xbe, 0x04, 0xdb, 0x53, 0xbd,
  0x84, 0xe8, 0xd8, 0x3d, 0xad, 0xac, 0x59, 0xbe, 0x0b, 0x44, 0xe4, 0x3a,
  0x40, 0x8b, 0xbf, 0xbe, 0xdf, 0xb0, 0xbf, 0xbc, 0x0d, 0x43, 0x08, 0xbe,
  0x28, 0xf1, 0x4b, 0xbd, 0xe7, 0xeb, 0x4d, 0xbc, 0x81, 0x32, 0x9f, 0xbe,
  0x17, 0xd2, 0x8b, 0xbd, 0xf6, 0x0d, 0xa5, 0xbb, 0x0d, 0xa3, 0x87, 0x3e,
  0xd0, 0x5d, 0x9d, 0x3d, 0x3e, 0x6a, 0xcb, 0x3d, 0x36, 0x31, 0x0c, 0x3e,
  0x4e, 0x9a, 0xa2, 0x3c, 0xd4, 0xf0, 0x10, 0x3d, 0x92, 0xa3, 0xda, 0x3e,
  0xc6, 0xde, 0xff, 0xff, 0x10, 0x00, 0x00, 0x00, 0x08, 0x00, 0x00, 0x00,
  0x1c, 0x00, 0x00, 0x00, 0x38, 0x00, 0x00, 0x00, 0x04, 0x00, 0x00, 0x00,
  0x10, 0x00, 0x00, 0x00, 0x04, 0x00, 0x00, 0x00, 0x01, 0x00, 0x00, 0x00,
  0x08, 0x00, 0x00, 0x00, 0x1a, 0x00, 0x00, 0x00, 0x73, 0x65, 0x71, 0x75,
  0x65, 0x6e, 0x74, 0x69, 0x61, 0x6c, 0x2f, 0x63, 0x6f, 0x6e, 0x76, 0x32,
  0x64, 0x5f, 0x31, 0x2f, 0x43, 0x6f, 0x6e, 0x76, 0x32, 0x44, 0x00, 0x00,
  0xc0, 0xde, 0xff, 0xff, 0xb6, 0xdf, 0xff, 0xff, 0x04, 0x00, 0x00, 0x00,
  0x80, 0x01, 0x00, 0x00, 0xc8, 0xfa, 0x2a, 0xbe, 0xa1, 0x72, 0xc7, 0x3d,
  0x02, 0x10, 0x88, 0x3e, 0x24, 0x28, 0xa9, 0x3d, 0x61, 0xd8, 0x8a, 0xbd,
  0x21, 0xd5, 0x0d, 0x3e, 0x90, 0xfb, 0xb6, 0x3c, 0xe3, 0x74, 0x74, 0x3e,
  0xe3, 0x75, 0x03, 0x3d, 0xca, 0x51, 0x0e, 0x3e, 0xf2, 0x0a, 0xa1, 0x3d,
  0x17, 0x9f, 0xa5, 0x3d, 0x78, 0x61, 0x1d, 0x3e, 0xda, 0xd4, 0x6b, 0x3e,
  0x51, 0x2c, 0xc1, 0x3e, 0xdd, 0xf7, 0x5c, 0x3c, 0x22, 0x69, 0x52, 0x3d,
  0x85, 0x43, 0x11, 0x3e, 0x39, 0x5c, 0x3f, 0x3b, 0xe8, 0xb2, 0x15, 0xbe,
  0x79, 0x3e, 0x92, 0xbe, 0x50, 0xf3, 0x8f, 0xbd, 0xa8, 0xb2, 0x11, 0xbe,
  0xaa, 0x24, 0x7c, 0xbe, 0x23, 0xc0, 0xad, 0x3d, 0x50, 0xe3, 0xb8, 0xbc,
  0xd0, 0x55, 0x7d, 0x3d, 0xd7, 0xfa, 0xcf, 0x3d, 0xac, 0xcf, 0x03, 0x3e,
  0x3f, 0x55, 0x8b, 0x3d, 0xf1, 0x1b, 0x53, 0x3d, 0xd9, 0xee, 0x9e, 0xbd,
  0x3a, 0x63, 0x89, 0x3e, 0xbc, 0x08, 0x00, 0xbe, 0xb5, 0xd7, 0xcf, 0xba,
  0x7b, 0xd1, 0xef, 0x3d, 0x70, 0xb6, 0x71, 0xbd, 0x62, 0xdf, 0x77, 0xbe,
  0xa4, 0xea, 0x69, 0xbd, 0xf1, 0xa1, 0xe0, 0xbd, 0x96, 0x1b, 0x25, 0xbe,
  0xe6, 0xc3, 0x95, 0xbe, 0x0a, 0xde, 0xc3, 0x3b, 0xf8, 0x9b, 0x1e, 0x3e,
  0x54, 0x94, 0xac, 0x3d, 0xb4, 0xcd, 0x49, 0x3e, 0x2c, 0xc7, 0x8a, 0x3e,
  0xe4, 0xe3, 0x98, 0x3e, 0x6b, 0x67, 0x3a, 0x3d, 0x3e, 0xf3, 0x4e, 0xbc,
  0xd9, 0xd1, 0x3d, 0xbd, 0xb9, 0xee, 0x45, 0x3e, 0x4b, 0xc3, 0x9b, 0xbe,
  0xfe, 0x75, 0xc0, 0xbd, 0x5d, 0x0f, 0x12, 0x3e, 0xa6, 0xe9, 0xe6, 0x3e,
  0xe1, 0xad, 0x27, 0x3e, 0x17, 0x9a, 0x16, 0xbe, 0x06, 0x0d, 0xea, 0x3c,
  0x61, 0xb4, 0x45, 0x3e, 0x72, 0x3a, 0xa0, 0xba, 0xc8, 0x37, 0x04, 0x3e,
  0xff, 0x4a, 0xa1, 0xbe, 0xe3, 0xe2, 0x1c, 0xbc, 0x07, 0x8b, 0x1f, 0x3e,
  0x72, 0xaa, 0x9b, 0x3d, 0x0e, 0x05, 0x7a, 0x3d, 0x3e, 0xb5, 0x14, 0x3d,
  0x2b, 0x24, 0x4b, 0x3c, 0x13, 0x6d, 0xc0, 0x3d, 0x74, 0xb3, 0xe9, 0xbb,
  0x2f, 0x58, 0x08, 0x3e, 0x9f, 0x5b, 0x65, 0xbe, 0x5d, 0xd5, 0x9c, 0x3e,
  0x45, 0x99, 0x0d, 0xbe, 0x16, 0xb9, 0x4d, 0x3c, 0xa0, 0xb4, 0xcc, 0x3d,
  0x38, 0x48, 0x0c, 0xbe, 0x9e, 0x18, 0x2c, 0x3e, 0x51, 0x48, 0x70, 0xbe,
  0x0e, 0xe6, 0x36, 0x3e, 0x6d, 0x75, 0x92, 0x3d, 0xcd, 0x3b, 0x28, 0xbe,
  0x1d, 0xb5, 0xf5, 0x3d, 0xfc, 0x73, 0x31, 0xbd, 0x47, 0x63, 0xc8, 0x3c,
  0x73, 0x93, 0x1c, 0xbc, 0xed, 0x43, 0xe7, 0x3c, 0xad, 0x83, 0x7c, 0xbd,
  0x17, 0x75, 0x48, 0xbd, 0x9e, 0x8f, 0x96, 0x3e, 0xc8, 0x0a, 0xd0, 0x3d,
  0xb9, 0x93, 0x19, 0xbb, 0x0b, 0x83, 0xad, 0x3d, 0x0f, 0xbc, 0x39, 0xbc,
  0xe6, 0x67, 0x7a, 0x3e, 0x9e, 0xe0, 0xff, 0xff, 0x10, 0x00, 0x00, 0x00,
  0x07, 0x00, 0x00, 0x00, 0x1c, 0x00, 0x00, 0x00, 0x38, 0x00, 0x00, 0x00,
  0x04, 0x00, 0x00, 0x00, 0x08, 0x00, 0x00, 0x00, 0x04, 0x00, 0x00, 0x00,
  0x03, 0x00, 0x00, 0x00, 0x01, 0x00, 0x00, 0x00, 0x18, 0x00, 0x00, 0x00,
  0x73, 0x65, 0x71, 0x75, 0x65, 0x6e, 0x74, 0x69, 0x61, 0x6c, 0x2f, 0x63,
  0x6f, 0x6e, 0x76, 0x32, 0x64, 0x2f, 0x43, 0x6f, 0x6e, 0x76, 0x32, 0x44,
  0x00, 0x00, 0x00, 0x00, 0x98, 0xe0, 0xff, 0xff, 0x8e, 0xe1, 0xff, 0xff,
  0x04, 0x00, 0x00, 0x00, 0x00, 0x01, 0x00, 0x00, 0x06, 0xdf, 0x52, 0xbd,
  0xb3, 0x63, 0xbd, 0x3c, 0x7c, 0x46, 0x8d, 0xbe, 0xd8, 0xb6, 0x31, 0xbd,
  0x74, 0x20, 0x7f, 0x3e, 0x9c, 0x9c, 0x95, 0xbe, 0xec, 0xa5, 0x34, 0x3e,
  0x41, 0xc4, 0x01, 0xbe, 0xce, 0x87, 0xf5, 0xbd, 0xa0, 0xbf, 0x35, 0xbe,
  0x1c, 0xf7, 0x2d, 0x3e, 0xd1, 0x12, 0x28, 0x3d, 0xbb, 0xb2, 0x05, 0x3f,
  0xca, 0x93, 0xb7, 0xbe, 0x2a, 0x9a, 0x20, 0xbe, 0xe3, 0x56, 0x54, 0xbe,
  0xe3, 0xdb, 0x10, 0x3d, 0x2e, 0x61, 0x5f, 0x3d, 0xad, 0xf9, 0x8e, 0xbe,
  0x3b, 0x0a, 0x41, 0x3d, 0x40, 0x1b, 0x8b, 0x3e, 0x98, 0x49, 0x09, 0xbe,
  0x86, 0xdf, 0x6d, 0x3e, 0x15, 0xc4, 0xa2, 0xbd, 0xfd, 0x57, 0xe8, 0x3d,
  0xe2, 0xe5, 0x16, 0xbe, 0xf6, 0x5c, 0x0f, 0x3e, 0x99, 0x62, 0xf6, 0x3d,
  0xbb, 0x39, 0xb0, 0xbf, 0x17, 0x94, 0x4c, 0xbd, 0x32, 0x1a, 0xf3, 0xbd,
  0x63, 0xf6, 0x66, 0xbe, 0x50, 0x0c, 0xf9, 0x3b, 0xfe, 0xc9, 0x32, 0x3c,
  0xa0, 0xea, 0x9f, 0xbe, 0x86, 0x3d, 0xec, 0xbd, 0x2e, 0xb6, 0x83, 0x3e,
  0xec, 0x31, 0x85, 0xbe, 0xe2, 0x02, 0x94, 0x3e, 0xa6, 0x29, 0xfa, 0xbd,
  0x24, 0x2a, 0xf5, 0xbe, 0xe3, 0xb5, 0xff, 0xbd, 0xa0, 0x89, 0x53, 0x3d,
  0xd7, 0xe9, 0x16, 0x3d, 0x5d, 0xba, 0x03, 0xc0, 0x1e, 0x88, 0xf4, 0xbe,
  0x14, 0x38, 0x77, 0xbd, 0x2c, 0xc9, 0x84, 0xbe, 0xd0, 0xe8, 0xde, 0x3d,
  0x59, 0xf0, 0xf5, 0x3d, 0x44, 0x21, 0xe8, 0xbe, 0x86, 0x1e, 0x82, 0x3d,
  0xfa, 0x0c, 0xf4, 0x3d, 0x5e, 0x0c, 0x1b, 0xbe, 0xc8, 0xd7, 0x4e, 0x3e,
  0x52, 0x73, 0x7d, 0xbe, 0x52, 0xcd, 0x0a, 0xbe, 0xf9, 0x20, 0x5f, 0xbe,
  0x47, 0xde, 0x90, 0x3d, 0xe9, 0x07, 0x19, 0x3d, 0x36, 0x3b, 0x8a, 0xbe,
  0x76, 0x71, 0x62, 0x3e, 0xf4, 0xd4, 0x1f, 0xbe, 0xdd, 0x46, 0x89, 0xbe,
  0xf6, 0xe1, 0xff, 0xff, 0x10, 0x00, 0x00, 0x00, 0x06, 0x00, 0x00, 0x00,
  0x14, 0x00, 0x00, 0x00, 0x30, 0x00, 0x00, 0x00, 0x02, 0x00, 0x00, 0x00,
  0x04, 0x00, 0x00, 0x00, 0x10, 0x00, 0x00, 0x00, 0x19, 0x00, 0x00, 0x00,
  0x73, 0x65, 0x71, 0x75, 0x65, 0x6e, 0x74, 0x69, 0x61, 0x6c, 0x2f, 0x64,
  0x65, 0x6e, 0x73, 0x65, 0x5f, 0x31, 0x2f, 0x4d, 0x61, 0x74, 0x4d, 0x75,
  0x6c, 0x00, 0x00, 0x00, 0xe8, 0xe1, 0xff, 0xff, 0xde, 0xe2, 0xff, 0xff,
  0x04, 0x00, 0x00, 0x00, 0x00, 0x1c, 0x00, 0x00, 0xce, 0xa0, 0xff, 0xbe,
  0x16, 0xa9, 0x4a, 0xbf, 0x0c, 0xb7, 0x3e, 0x3e, 0x68, 0xc1, 0x23, 0xbe,
  0x48, 0xa5, 0x51, 0xbe, 0x40, 0xd1, 0xa9, 0x3e, 0x3a, 0x89, 0x71, 0xbe,
  0x9a, 0xe2, 0xa2, 0xbd, 0x0f, 0x3b, 0x1a, 0xbe, 0x45, 0xec, 0x8f, 0x3d,
  0x52, 0x5a, 0xe0, 0xbb, 0x42, 0x91, 0x5f, 0xbd, 0x7e, 0xc9, 0x11, 0x3e,
  0xf3, 0x50, 0x02, 0xbf, 0x5d, 0xf2, 0x2d, 0x3f, 0xfc, 0x52, 0x09, 0x3e,
  0x9f, 0x4b, 0x4f, 0xbd, 0x2a, 0xf5, 0x55, 0xbe, 0x2d, 0x7d, 0xfb, 0x3d,
  0xf9, 0x33, 0x85, 0x3e, 0x81, 0x93, 0xa2, 0xbd, 0x61, 0xe3, 0x96, 0xbd,
  0x2d, 0x43, 0x17, 0xbe, 0x77, 0xfe, 0xa2, 0xbd, 0xe7, 0xfb, 0x2b, 0xbe,
  0x4c, 0xcb, 0x16, 0x3e, 0xfc, 0xbe, 0x95, 0x3d, 0xb5, 0x7b, 0x84, 0x3e,
  0x81, 0x56, 0x08, 0x3e, 0xf8, 0x60, 0xdb, 0x3b, 0xbb, 0xf9, 0xb3, 0x3e,
  0xa5, 0xdf, 0xd2, 0xbc, 0xa9, 0xad, 0x3e, 0x3d, 0xc8, 0x87, 0x24, 0xbe,
  0x20, 0x9a, 0x60, 0xbd, 0x5c, 0x8a, 0x2d, 0x3e, 0xdb, 0xc9, 0x5c, 0x3c,
  0x94, 0x5f, 0xc2, 0xbd, 0xa4, 0x37, 0xfa, 0xbd, 0x41, 0x1e, 0xf4, 0xbd,
  0xdb, 0x79, 0xbc, 0xbd, 0xf1, 0x14, 0xb2, 0x3c, 0xba, 0x58, 0x88, 0xbd,
  0x3a, 0xbe, 0xd0, 0xbc, 0x74, 0x6d, 0x1e, 0x3e, 0x8b, 0xb5, 0xc0, 0x3d,
  0x7b, 0xa3, 0xfa, 0xbb, 0x89, 0x00, 0x2e, 0xbd, 0xa8, 0x8c, 0x2a, 0xbd,
  0xdb, 0xd3, 0xdc, 0x3c, 0x16, 0xd5, 0xae, 0xba, 0x62, 0x29, 0xd4, 0x3e,
  0x13, 0x21, 0x1f, 0xbd, 0x7d, 0x21, 0x23, 0x3d, 0x76, 0x05, 0x7f, 0xbd,
  0xd8, 0x66, 0xae, 0xbd, 0xec, 0x4b, 0x1f, 0xbe, 0x4d, 0x7f, 0x88, 0x3e,
  0xbc, 0xf5, 0xbb, 0x3d, 0xaa, 0xd5, 0x41, 0xbe, 0x5d, 0x92, 0xbc, 0x3d,
  0x88, 0x90, 0xe0, 0x37, 0xa1, 0x8d, 0x87, 0x3e, 0x81, 0x46, 0xd0, 0xbd,
  0xc3, 0xb0, 0x85, 0xbe, 0x9c, 0x01, 0xc5, 0x3c, 0x7b, 0xe8, 0xe4, 0xbb,
  0x64, 0x29, 0x8d, 0x3e, 0x41, 0x05, 0x9e, 0x3e, 0xa8, 0x7a, 0x8a, 0xbe,
  0xb0, 0x95, 0x1c, 0xbd, 0x21, 0x35, 0xb5, 0xbd, 0x55, 0x7e, 0xcf, 0xbc,
  0xe1, 0x6d, 0x3a, 0x3e, 0x2f, 0x58, 0xe6, 0x3d, 0x56, 0xa7, 0x29, 0x3e,
  0xfb, 0x41, 0xcf, 0xbd, 0xc2, 0xce, 0xe1, 0xbc, 0x1a, 0xd9, 0x8b, 0x3e,
  0xae, 0xcb, 0x90, 0xbd, 0xd6, 0x46, 0xe4, 0xbe, 0xf8, 0x44, 0x4c, 0xbe,
  0x31, 0x25, 0xf6, 0x3d, 0x40, 0x41, 0xa4, 0xbe, 0x34, 0xc0, 0x0a, 0xbe,
  0x0f, 0xb4, 0x01, 0xbe, 0xde, 0x0c, 0x63, 0xbe, 0x22, 0x4e, 0xa3, 0xbe,
  0x5a, 0x6d, 0x4a, 0xbe, 0xab, 0xac, 0x9e, 0xbc, 0x05, 0x16, 0xa1, 0xbd,
  0xed, 0x91, 0xa5, 0x3b, 0x1f, 0xa3, 0x08, 0xbe, 0x83, 0x16, 0x16, 0xbe,
  0x0f, 0x41, 0x8d, 0x3d, 0x5d, 0x50, 0xf7, 0xbe, 0xaa, 0xf7, 0xee, 0x3d,
  0x2f, 0xac, 0x7e, 0xbe, 0x28, 0x5d, 0x03, 0xbe, 0x9c, 0x1f, 0xc8, 0x3c,
  0x88, 0x2c, 0x52, 0x3c, 0xc2, 0x6a, 0x6f, 0x3e, 0xb4, 0xa8, 0x86, 0xbe,
  0x19, 0x0d, 0xa0, 0x3d, 0x26, 0xbe, 0x56, 0xbd, 0x1f, 0x87, 0x06, 0x3e,
  0x7d, 0x90, 0x08, 0x3d, 0x60, 0xd8, 0x6b, 0xbd, 0x84, 0x80, 0x73, 0x3d,
  0x39, 0x69, 0x39, 0xbe, 0x0e, 0xff, 0x5f, 0x3a, 0x41, 0xeb, 0xda, 0xbd,
  0x93, 0x4c, 0x5b, 0xbe, 0xd2, 0x24, 0xb6, 0xbd, 0x7c, 0x8b, 0xd1, 0xbe,
  0xe1, 0x6c, 0xe6, 0xbd, 0x5e, 0x3d, 0x5f, 0xbd, 0x5d, 0xb1, 0x6c, 0x3e,
  0x8d, 0x1f, 0x40, 0x3d, 0xca, 0x03, 0x88, 0xbe, 0x39, 0x4c, 0x1d, 0xbd,
  0x5f, 0x57, 0x5c, 0xbe, 0x74, 0x2f, 0xf6, 0xbd, 0x56, 0xa9, 0x08, 0xbe,
  0x1d, 0x34, 0x54, 0xbe, 0x21, 0x2b, 0x5e, 0x3d, 0x91, 0xf5, 0xab, 0xbd,
  0x74, 0x31, 0x86, 0xbe, 0xad, 0x89, 0xd3, 0xbd, 0x50, 0x72, 0xf3, 0x3b,
  0x08, 0x82, 0x4d, 0xbe, 0x37, 0x19, 0xab, 0xbe, 0xf8, 0x42, 0x13, 0x3e,
  0xf7, 0x3e, 0x8d, 0x3e, 0x77, 0xd7, 0xd0, 0x3a, 0xea, 0xff, 0x94, 0xbe,
  0x79, 0x8f, 0xef, 0x3d, 0x82, 0x75, 0xd2, 0xbd, 0x86, 0x66, 0x64, 0xbc,
  0x20, 0x96, 0x5f, 0xbe, 0xef, 0x00, 0x62, 0xbd, 0x03, 0xb7, 0x38, 0x3c,
  0x6a, 0x26, 0xdd, 0x3c, 0x3a, 0x16, 0x69, 0xbe, 0x66, 0xba, 0xd0, 0xbd,
  0xfe, 0x0f, 0xed, 0x3c, 0x29, 0x63, 0x3d, 0xbe, 0x8b, 0x3d, 0x05, 0xbd,
  0x68, 0x47, 0x9a, 0x3b, 0xd8, 0xec, 0x6a, 0xbd, 0xf7, 0x0b, 0x79, 0xbd,
  0x90, 0x03, 0xc1, 0xbd, 0xc6, 0xe4, 0x38, 0x3e, 0x21, 0x04, 0x59, 0xbb,
  0xbc, 0x02, 0xa1, 0xbd, 0x47, 0xf7, 0x5b, 0xbe, 0x03, 0x3e, 0x86, 0x3c,
  0x44, 0xc2, 0x5e, 0x3e, 0x88, 0xfa, 0x19, 0x3e, 0x34, 0x3d, 0x4b, 0xbe,
  0x29, 0xa0, 0x6b, 0xbe, 0xc8, 0x15, 0x24, 0x3e, 0x65, 0x99, 0x9a, 0xbd,
  0xea, 0xc9, 0x8f, 0x3d, 0x0b, 0x12, 0x2b, 0x3e, 0xc4, 0x83, 0x94, 0x3e,
  0x84, 0x8c, 0x9f, 0x3d, 0x9c, 0xaa, 0x7c, 0xbd, 0x6d, 0x5a, 0x44, 0x3e,
  0xea, 0x9a, 0xa5, 0xbd, 0xd0, 0x11, 0x61, 0xbc, 0xd5, 0x55, 0xc5, 0xba,
  0x2b, 0x88, 0xa0, 0xbc, 0x3f, 0xa2, 0x08, 0x3e, 0x31, 0x95, 0x81, 0xbc,
  0x82, 0x01, 0x4f, 0xbd, 0xd1, 0x1e, 0x56, 0xbe, 0x91, 0x8f, 0x20, 0x3e,
  0xc1, 0x53, 0x29, 0xbe, 0xae, 0x2e, 0x0d, 0xbe, 0x4c, 0x1a, 0xc3, 0x3b,
  0x88, 0xce, 0xa6, 0xbc, 0x6f, 0x10, 0x4b, 0x3c, 0x6b, 0x6e, 0x52, 0xbe,
  0x2e, 0xcd, 0xc1, 0x3d, 0x87, 0xf4, 0xa0, 0xbe, 0x16, 0x42, 0xed, 0xbe,
  0x01, 0x76, 0xd2, 0xbd, 0x9b, 0x41, 0xb3, 0xbd, 0xf0, 0xf1, 0xc9, 0x3d,
  0x03, 0xfc, 0x2d, 0x3d, 0x9b, 0x78, 0xfa, 0xbe, 0xe4, 0xa3, 0x2f, 0xbe,
  0x96, 0x66, 0xc8, 0x3d, 0x10, 0x56, 0xa1, 0xbe, 0x35, 0x03, 0xbb, 0xbd,
  0xef, 0x6c, 0x4a, 0xb9, 0x86, 0xe7, 0x01, 0xbe, 0xa2, 0x7f, 0x96, 0xbc,
  0x08, 0xf1, 0x6a, 0xbe, 0xb0, 0x61, 0x2c, 0x3e, 0x78, 0x79, 0xd2, 0xbd,
  0x1a, 0xb1, 0xc6, 0xbe, 0xba, 0x0e, 0x1c, 0xbe, 0xc9, 0x15, 0x83, 0xbe,
  0x2f, 0x8b, 0x56, 0x3e, 0xe6, 0xd0, 0xcd, 0x3d, 0xdb, 0xc5, 0xa5, 0xbe,
  0x6f, 0xf5, 0xba, 0xbe, 0xc9, 0x48, 0x68, 0xbd, 0xe2, 0x37, 0x2d, 0xbd,
  0x17, 0xf7, 0x12, 0xbe, 0x71, 0x48, 0x0b, 0xbe, 0xf0, 0x00, 0x2a, 0xbe,
  0x4b, 0x36, 0x07, 0xbe, 0xc5, 0xc4, 0xf8, 0xbe, 0x06, 0xd9, 0x5d, 0xbd,
  0x8d, 0xda, 0xb4, 0xbd, 0x6c, 0x68, 0x67, 0xbe, 0xe5, 0x91, 0xa3, 0xbd,
  0x92, 0x27, 0x59, 0x3e, 0x0a, 0xc4, 0x09, 0x3e, 0x6d, 0x07, 0x94, 0x3e,
  0xff, 0xb2, 0x85, 0xbe, 0xd0, 0x29, 0xb8, 0xbc, 0x46, 0xf5, 0xd4, 0xbe,
  0x77, 0x04, 0x22, 0x3d, 0x8a, 0x74, 0x31, 0xbe, 0xce, 0x13, 0x13, 0xbe,
  0x50, 0x18, 0x05, 0x3e, 0x75, 0x62, 0xc6, 0xbd, 0x38, 0x1a, 0xad, 0xbd,
  0xf7, 0x47, 0x65, 0xbe, 0xae, 0x7d, 0x72, 0xbe, 0x61, 0x7c, 0x19, 0xbd,
  0x2c, 0xc3, 0x5a, 0xbe, 0x87, 0x53, 0xcd, 0xbc, 0x02, 0xdc, 0xac, 0xbd,
  0xe8, 0x51, 0x55, 0xbf, 0xf4, 0xc0, 0x6f, 0xba, 0xd7, 0xf3, 0xb1, 0x3e,
  0xaf, 0x20, 0x06, 0xbe, 0x63, 0x3d, 0xa1, 0xbd, 0x1c, 0x55, 0xf7, 0xbd,
  0x99, 0x65, 0xad, 0x3d, 0x3b, 0xe3, 0x11, 0x3f, 0x9d, 0x37, 0x81, 0x3d,
  0x93, 0xc4, 0x9b, 0xbe, 0x0e, 0x55, 0x93, 0xbe, 0x92, 0x5b, 0xde, 0x3d,
  0xa3, 0x11, 0x87, 0xbd, 0xcc, 0x9a, 0x8d, 0x3e, 0xfb, 0x7c, 0x89, 0xbd,
  0x6e, 0x52, 0xe0, 0x3d, 0x89, 0xd6, 0xcd, 0xbe, 0x01, 0xdb, 0xc4, 0xbd,
  0x97, 0xea, 0x7e, 0x3e, 0xc8, 0x5e, 0x99, 0xbe, 0xa9, 0xb8, 0x1f, 0x3d,
  0x21, 0x9e, 0x86, 0x3c, 0xda, 0x77, 0x18, 0x3c, 0x52, 0x67, 0xfb, 0x3e,
  0x59, 0xd8, 0x68, 0x3d, 0xba, 0x22, 0x43, 0x3d, 0x77, 0x50, 0x5c, 0xbd,
  0x94, 0xc2, 0x79, 0x3d, 0xb2, 0x66, 0x9b, 0x3d, 0xca, 0xff, 0xa6, 0x3e,
  0xcb, 0xf5, 0x06, 0xbe, 0xd7, 0x45, 0x64, 0x3d, 0x47, 0x5b, 0x26, 0x3d,
  0xf9, 0x40, 0x4d, 0xbd, 0x20, 0x8a, 0x06, 0x3e, 0x6f, 0xd5, 0x8a, 0x3d,
  0x59, 0x3f, 0x09, 0x3d, 0x8b, 0x8a, 0x83, 0xbd, 0x01, 0x7c, 0x82, 0xbd,
  0x6b, 0xc5, 0xff, 0x3e, 0x28, 0x79, 0xc1, 0x37, 0x00, 0x3e, 0x4b, 0x3d,
  0x54, 0xb7, 0xd0, 0x3c, 0x54, 0x9a, 0xb7, 0xbc, 0x49, 0x80, 0x01, 0x3d,
  0xf3, 0x8e, 0x1b, 0x3e, 0xde, 0x5f, 0xfa, 0xbd, 0x65, 0xc3, 0xa3, 0xbd,
  0x1d, 0x8f, 0xd8, 0xbe, 0xbc, 0x5c, 0xb8, 0xbd, 0x80, 0x25, 0x14, 0xbd,
  0x06, 0x86, 0x56, 0x3d, 0x17, 0x9a, 0x85, 0xbd, 0x4a, 0xd0, 0xcf, 0xbc,
  0x2b, 0x5b, 0x0b, 0xbd, 0x0b, 0x3b, 0x03, 0x3f, 0xaf, 0x6c, 0xa6, 0x3d,
  0x86, 0xde, 0x0a, 0x3e, 0xd0, 0x45, 0x07, 0x3b, 0x22, 0x66, 0x8e, 0x3c,
  0xfe, 0xc3, 0xbe, 0x3d, 0x97, 0xe2, 0x8d, 0x3d, 0x83, 0x6f, 0xfa, 0x3c,
  0x22, 0x97, 0x26, 0xbe, 0xc6, 0xe7, 0x7e, 0xbe, 0x67, 0x1a, 0x00, 0x3d,
  0xda, 0x08, 0x03, 0x3d, 0x6e, 0x3c, 0xa0, 0x3d, 0x19, 0x0f, 0x0e, 0xbe,
  0xec, 0xa0, 0x53, 0x3e, 0x04, 0xb4, 0x47, 0xbc, 0xb8, 0x39, 0x0d, 0x3f,
  0x3e, 0xc5, 0x67, 0x3d, 0xd9, 0x7e, 0xe1, 0x3d, 0x7b, 0x4b, 0x93, 0x3c,
  0x98, 0x55, 0xcf, 0xbd, 0xf4, 0x33, 0x46, 0xbd, 0x39, 0x0b, 0x1e, 0x3e,
  0x90, 0x1a, 0x00, 0x3e, 0xa4, 0x3e, 0xa9, 0xbd, 0x18, 0x52, 0xa2, 0xbc,
  0xd6, 0xbf, 0xe6, 0x3d, 0x57, 0x29, 0x32, 0xbd, 0x8c, 0x8f, 0xc4, 0x3d,
  0xd4, 0x56, 0xfb, 0x3d, 0x8f, 0x7b, 0x2b, 0xbd, 0xff, 0x0b, 0xef, 0xbc,
  0x1f, 0xcb, 0x49, 0xbe, 0x1c, 0x9a, 0xdd, 0x3d, 0x9e, 0xc5, 0x07, 0x3d,
  0xcb, 0x4b, 0x46, 0x3d, 0x77, 0x44, 0xb5, 0xbd, 0x03, 0x25, 0xa2, 0x3c,
  0x58, 0xa8, 0xe4, 0x3b, 0x78, 0x9e, 0xab, 0xbd, 0x53, 0x0a, 0x86, 0x3d,
  0x60, 0xc8, 0x09, 0xbe, 0x1c, 0xdb, 0xb8, 0xbb, 0x72, 0xb8, 0x25, 0xbe,
  0xbc, 0x08, 0x5c, 0xbd, 0x2f, 0xb9, 0x2b, 0x3e, 0x54, 0xd7, 0x41, 0xbe,
  0x52, 0x4d, 0xe2, 0xbd, 0x4f, 0xc0, 0x43, 0x3f, 0x3e, 0xeb, 0x61, 0x3d,
  0xbb, 0x13, 0xb3, 0xbc, 0x90, 0xc0, 0x2e, 0xbe, 0x58, 0xb1, 0x9a, 0xbe,
  0xa5, 0xd9, 0x15, 0xbe, 0xc6, 0x0a, 0x37, 0x3e, 0x7c, 0x78, 0x61, 0x3e,
  0x7c, 0xe3, 0x9d, 0xbe, 0x63, 0x7d, 0xb0, 0x3e, 0x8c, 0x84, 0xb5, 0xbd,
  0x3d, 0x3b, 0x6b, 0x3c, 0xc3, 0xa1, 0x08, 0xbe, 0x5e, 0x63, 0x08, 0xbe,
  0x39, 0xd7, 0x5d, 0xbd, 0x6c, 0xec, 0x26, 0xbd, 0xe8, 0x08, 0x81, 0xbd,
  0x52, 0xe9, 0x11, 0xbe, 0x81, 0x66, 0x8e, 0xbe, 0xe6, 0xe2, 0xc5, 0xbe,
  0x8f, 0x17, 0x57, 0x3b, 0xd9, 0x95, 0x99, 0x3d, 0xa3, 0x20, 0x4b, 0x3e,
  0xc3, 0x8d, 0x00, 0xbd, 0xd6, 0x5e, 0x28, 0xbe, 0x20, 0x5f, 0xb7, 0x3e,
  0x6f, 0x12, 0x1d, 0x3e, 0x44, 0x03, 0xa9, 0xbd, 0x3d, 0xa0, 0x6c, 0x3e,
  0xa1, 0x9a, 0x7d, 0x3d, 0xf1, 0x03, 0xb1, 0xbd, 0x27, 0xff, 0xdd, 0xbd,
  0xc5, 0x0e, 0x0a, 0xbe, 0x44, 0x61, 0xc5, 0x3c, 0x61, 0x71, 0xa2, 0xbd,
  0x01, 0xb6, 0x1e, 0xbe, 0x17, 0xa2, 0xfc, 0xbd, 0xc6, 0x0a, 0x0e, 0xbd,
  0xef, 0xcb, 0x7b, 0x3e, 0x18, 0xa2, 0xbe, 0xbd, 0x1c, 0x97, 0x02, 0x3e,
  0x0d, 0xf1, 0x46, 0x3e, 0x36, 0x5b, 0x95, 0x3c, 0x79, 0xc1, 0xe3, 0x3b,
  0xb3, 0xc1, 0xe6, 0x3d, 0x5b, 0x40, 0x31, 0xbc, 0xf9, 0xb3, 0xb1, 0xbe,
  0x03, 0x69, 0x62, 0x3d, 0x81, 0x9c, 0xfd, 0xbc, 0xa2, 0x21, 0x2d, 0xbe,
  0x8d, 0xb2, 0x54, 0xbe, 0x13, 0xd6, 0x24, 0xbe, 0xaf, 0xc9, 0xe1, 0xbd,
  0x15, 0x67, 0x8a, 0x3e, 0xa5, 0x63, 0xcb, 0x3b, 0xa3, 0x78, 0x1f, 0x3d,
  0x86, 0xe5, 0x07, 0xbe, 0x31, 0xb7, 0x86, 0x3e, 0xe3, 0x08, 0x0b, 0x3e,
  0xcd, 0x76, 0x44, 0xbe, 0xd8, 0x00, 0x25, 0x3d, 0x91, 0x1e, 0x99, 0x3e,
  0xda, 0x5f, 0xc4, 0xbe, 0x7c, 0x0e, 0x24, 0xbd, 0x6f, 0x61, 0x12, 0xbe,
  0x24, 0xdf, 0xdf, 0xbc, 0xcb, 0x88, 0xeb, 0xbb, 0x67, 0xe3, 0x79, 0xbe,
  0xbb, 0xb2, 0x1d, 0x3d, 0x7a, 0xbe, 0xd7, 0xbd, 0x1c, 0x74, 0x01, 0xbe,
  0x6b, 0xc6, 0x1b, 0xbd, 0x72, 0xb8, 0x39, 0xbd, 0xd1, 0x49, 0x68, 0x3e,
  0x20, 0x99, 0xef, 0xbb, 0x72, 0xe7, 0x25, 0xbe, 0x8f, 0xce, 0x53, 0xbd,
  0xbd, 0xca, 0x31, 0x3d, 0x3f, 0x2e, 0xef, 0xbe, 0x3e, 0x9b, 0x3f, 0xbe,
  0x4c, 0x23, 0x16, 0xbe, 0x58, 0xe2, 0xdb, 0xbd, 0x07, 0xaf, 0x37, 0xbd,
  0x79, 0x65, 0x7f, 0xbd, 0x4f, 0x8e, 0x3f, 0xbd, 0xc6, 0x48, 0xf7, 0x3c,
  0x2e, 0x19, 0xa4, 0xbd, 0x34, 0x3c, 0x68, 0xbd, 0x6d, 0xfb, 0xbf, 0x3a,
  0xc6, 0x53, 0x43, 0x3e, 0x0b, 0xd7, 0x8a, 0x3c, 0x18, 0xfe, 0x17, 0xbe,
  0xb8, 0x1a, 0x49, 0xbd, 0x7d, 0x5e, 0x65, 0x3d, 0x19, 0x03, 0x50, 0x3e,
  0x9a, 0x3a, 0x4c, 0xbe, 0x7a, 0x6a, 0xb9, 0x3d, 0xfd, 0x61, 0x2a, 0x3c,
  0xf7, 0xe4, 0x6b, 0xbe, 0x37, 0xc5, 0xbc, 0xbd, 0xce, 0x40, 0x79, 0xbe,
  0x09, 0x66, 0x3f, 0x3d, 0x3e, 0xb0, 0x37, 0xbe, 0x90, 0x72, 0xcb, 0x39,
  0x21, 0x95, 0x5e, 0xbe, 0x4e, 0x38, 0x43, 0x3e, 0x81, 0x3a, 0x28, 0xbe,
  0x39, 0x83, 0x33, 0x3e, 0x71, 0x54, 0x6e, 0x3e, 0xbb, 0xfe, 0x67, 0xbb,
  0xe8, 0xfa, 0x83, 0x3e, 0xcf, 0x42, 0x25, 0x3d, 0x56, 0x64, 0x39, 0xbe,
  0xc4, 0x5c, 0x0c, 0x3d, 0xeb, 0xfb, 0xf7, 0x3c, 0x2d, 0x29, 0x8c, 0x3d,
  0xd9, 0xbd, 0x58, 0x3d, 0xa2, 0xb4, 0x11, 0xbc, 0x1a, 0xd8, 0x6e, 0x3c,
  0x48, 0x79, 0xf9, 0xbd, 0x8c, 0xfa, 0x69, 0x3d, 0xcc, 0x91, 0x63, 0xbe,
  0x59, 0x53, 0x16, 0xbd, 0xa3, 0x2d, 0xe7, 0x3c, 0x41, 0xbe, 0xd7, 0x3d,
  0x2a, 0xfc, 0xd3, 0x3c, 0xcb, 0x3d, 0x9c, 0x3e, 0x55, 0x07, 0x11, 0xbe,
  0x49, 0x33, 0x79, 0xbe, 0x89, 0x3b, 0x92, 0x3d, 0x65, 0xd4, 0x0c, 0x3e,
  0x16, 0xe0, 0x6f, 0x3d, 0x1d, 0xa7, 0xe3, 0x3c, 0x44, 0xa6, 0x39, 0x3d,
  0xef, 0x2e, 0x0f, 0xbe, 0x3f, 0xd8, 0x46, 0xbd, 0xe8, 0xc4, 0x16, 0xbe,
  0x4c, 0x8e, 0x41, 0x3e, 0x94, 0x65, 0x24, 0xbd, 0x39, 0x93, 0x31, 0xbc,
  0xea, 0xc9, 0x62, 0x3d, 0x57, 0xe8, 0x66, 0x3d, 0x50, 0x55, 0x91, 0xbd,
  0xbb, 0xce, 0x4c, 0xbe, 0x6c, 0xfd, 0x7b, 0xbe, 0xd2, 0x5b, 0x1d, 0x3d,
  0x0c, 0xa5, 0xe6, 0x3d, 0x80, 0x0c, 0xb1, 0xbd, 0x35, 0x69, 0xb1, 0x3d,
  0x35, 0x89, 0x85, 0x3d, 0x04, 0x85, 0x11, 0xbe, 0x4d, 0x4d, 0x31, 0xbd,
  0xc2, 0xa0, 0x19, 0xbe, 0x11, 0x35, 0x28, 0x3d, 0xb4, 0x5b, 0x79, 0x3c,
  0xd3, 0x82, 0xd0, 0x3d, 0x58, 0xb6, 0x2b, 0x3d, 0x6c, 0x43, 0xdc, 0x3d,
  0x6a, 0xab, 0x59, 0xbe, 0xbb, 0x2b, 0x4e, 0xbe, 0xe6, 0x0a, 0x87, 0xbd,
  0x79, 0xe1, 0x8f, 0xbd, 0x12, 0x61, 0x1e, 0x3d, 0xee, 0xf1, 0xb3, 0xbd,
  0x2f, 0x5a, 0xf6, 0x3c, 0x92, 0xa1, 0x80, 0xbd, 0x25, 0xb7, 0xb6, 0xbc,
  0x62, 0x95, 0xd7, 0xbc, 0x14, 0x5b, 0x20, 0xbe, 0x04, 0x35, 0x64, 0x3e,
  0xb5, 0x90, 0x36, 0x3d, 0xed, 0x5c, 0x90, 0x3e, 0xad, 0x24, 0xd2, 0x3d,
  0x2b, 0x56, 0x1e, 0x3e, 0xcc, 0x46, 0x8c, 0x3d, 0x12, 0x8e, 0x61, 0xbd,
  0xbb, 0x19, 0x4e, 0x3d, 0xbf, 0x85, 0x55, 0xbd, 0x0c, 0x97, 0x01, 0xbe,
  0x1b, 0x2e, 0xa8, 0xbd, 0xd5, 0x1c, 0x5d, 0xbd, 0x89, 0x75, 0xfe, 0xbd,
  0x4f, 0x44, 0x3a, 0xbe, 0x1f, 0x89, 0xc6, 0x3d, 0x1c, 0x20, 0x23, 0xbd,
  0x5c, 0xc0, 0x38, 0xbe, 0x87, 0x50, 0xc2, 0x3d, 0x4f, 0xa4, 0x7a, 0x3e,
  0xd3, 0x87, 0xc7, 0x3d, 0xc9, 0xf7, 0x8f, 0x3d, 0x90, 0xf2, 0xa6, 0x3e,
  0x85, 0xe2, 0xcb, 0x3d, 0xd6, 0xe1, 0x81, 0x3e, 0x43, 0x96, 0xbb, 0xbc,
  0xa5, 0xd7, 0x2d, 0xbc, 0x62, 0x73, 0x54, 0x3d, 0x6f, 0xc4, 0xb1, 0x3d,
  0xfd, 0x1a, 0xbe, 0x3d, 0xde, 0x76, 0x67, 0xbe, 0x76, 0x6d, 0x0e, 0x3e,
  0x0e, 0xa3, 0x16, 0xbd, 0x43, 0xd2, 0xec, 0xbd, 0x73, 0x6d, 0x58, 0x3d,
  0x42, 0x1e, 0xdb, 0xbc, 0xf8, 0x76, 0x01, 0x3d, 0xfb, 0xa5, 0xe5, 0x3d,
  0x36, 0x56, 0xcd, 0x3b, 0x83, 0xdf, 0x20, 0x3d, 0x18, 0xb7, 0xd1, 0xbd,
  0xa8, 0x69, 0xc6, 0x3d, 0x50, 0xe0, 0xc5, 0x3c, 0x9d, 0x74, 0x8b, 0xbb,
  0xa6, 0xcb, 0x98, 0x3c, 0x1a, 0xa1, 0xf7, 0xbb, 0xdd, 0xfc, 0x0f, 0xbd,
  0xa3, 0xbc, 0x86, 0xbc, 0xd6, 0x6b, 0x5d, 0x3d, 0x26, 0x08, 0x9e, 0xbd,
  0x6a, 0xaa, 0x8b, 0x3c, 0xa1, 0xb6, 0x90, 0xbe, 0x25, 0x76, 0xa2, 0x3c,
  0xa3, 0x44, 0xb4, 0xbd, 0x96, 0x33, 0x27, 0xbf, 0x15, 0x79, 0x73, 0x3d,
  0x5d, 0x60, 0xbb, 0x3e, 0xf6, 0x65, 0x56, 0xbd, 0xec, 0x54, 0x6b, 0xbe,
  0x3e, 0x25, 0x00, 0xbe, 0xda, 0x1a, 0x03, 0xbe, 0x67, 0xac, 0x0f, 0xbe,
  0xb9, 0x18, 0x9f, 0xbd, 0xfe, 0x14, 0x43, 0x3d, 0xef, 0x2d, 0xa8, 0xbd,
  0x17, 0xe0, 0x4a, 0x3f, 0xab, 0x20, 0xc5, 0x3c, 0x71, 0x05, 0x24, 0xbe,
  0x63, 0xa6, 0x83, 0xbe, 0x92, 0x41, 0x94, 0xbd, 0x8f, 0xfb, 0x6c, 0x3c,
  0x4f, 0xe6, 0x1a, 0xbd, 0x29, 0x15, 0x05, 0xbe, 0x89, 0xae, 0x96, 0xbe,
  0xfc, 0x15, 0x49, 0xbe, 0x89, 0x79, 0x26, 0xbe, 0xd4, 0x83, 0xda, 0x3d,
  0xe8, 0x6f, 0x97, 0xbc, 0x79, 0xc0, 0xa3, 0x3e, 0x99, 0x38, 0x33, 0xbd,
  0xac, 0x28, 0x61, 0x3e, 0x43, 0x58, 0xaf, 0x3e, 0x94, 0x48, 0x05, 0xbe,
  0x0c, 0x9a, 0x34, 0xbc, 0x42, 0x6e, 0x03, 0x3d, 0x61, 0xc2, 0x8b, 0xbd,
  0xef, 0x52, 0x90, 0x3d, 0x9a, 0x84, 0x43, 0x3d, 0x9f, 0xda, 0x31, 0xbe,
  0xfc, 0xd9, 0xab, 0xbe, 0x5a, 0x89, 0x15, 0x3d, 0xa5, 0x58, 0x03, 0x3d,
  0xd8, 0xe3, 0xc7, 0xbd, 0xa3, 0xb5, 0xc9, 0xbc, 0x7f, 0xae, 0x4c, 0xbb,
  0x40, 0xc9, 0x1b, 0xbe, 0xb5, 0x7b, 0xdf, 0x3c, 0xf3, 0x06, 0x68, 0xbd,
  0x75, 0x35, 0x79, 0xbd, 0xbc, 0xe8, 0x37, 0xbe, 0x2b, 0xae, 0x6c, 0x3d,
  0xea, 0xe1, 0xb6, 0xbd, 0x33, 0x57, 0x4e, 0x3e, 0xfe, 0xf8, 0x38, 0x3d,
  0x47, 0x6b, 0x4d, 0xbe, 0x73, 0x46, 0x61, 0xbd, 0x29, 0xfe, 0x83, 0x3c,
  0xdb, 0x4b, 0xa8, 0xbd, 0x0a, 0xd3, 0xff, 0x3c, 0x92, 0xcc, 0xf9, 0x3d,
  0x56, 0xfb, 0x68, 0xbd, 0x74, 0x60, 0x16, 0xbe, 0xc0, 0x75, 0x22, 0x3c,
  0xff, 0x48, 0x07, 0xbc, 0xd8, 0x84, 0x96, 0xbd, 0x61, 0xea, 0xb6, 0xbe,
  0xe8, 0xd7, 0xf1, 0x3d, 0x0a, 0xec, 0x25, 0x3d, 0xe7, 0xda, 0x84, 0x3c,
  0x0c, 0x51, 0x87, 0xbe, 0xc0, 0x57, 0x1c, 0xbe, 0xcf, 0x1c, 0x3a, 0xbe,
  0x3b, 0xcb, 0x42, 0xbe, 0x92, 0x23, 0xfc, 0xbd, 0x1b, 0x08, 0xa3, 0xbd,
  0x60, 0x35, 0xa7, 0x3d, 0x93, 0x47, 0x08, 0x3d, 0x31, 0x7c, 0xca, 0xbd,
  0xaf, 0x69, 0x47, 0x3d, 0xe9, 0x4f, 0x18, 0x3e, 0xfa, 0x28, 0x89, 0xbd,
  0x15, 0xfc, 0xdd, 0xbd, 0x3d, 0xe3, 0xd6, 0xbb, 0xd6, 0xf3, 0x83, 0xbe,
  0xe6, 0xfa, 0x0a, 0xbe, 0xb4, 0x75, 0xc7, 0x3d, 0x5e, 0x17, 0xb7, 0x3d,
  0x5d, 0x42, 0x4d, 0xbc, 0x38, 0x2c, 0x37, 0xbe, 0xf5, 0xed, 0x59, 0xbe,
  0x26, 0xf9, 0x3c, 0xbe, 0xe2, 0xb7, 0x50, 0xbc, 0x75, 0x1c, 0x9e, 0xbe,
  0x62, 0xab, 0xff, 0x3b, 0x20, 0x5e, 0xf5, 0xbd, 0x7c, 0x3e, 0x15, 0x3d,
  0x30, 0xb7, 0x04, 0x3c, 0x80, 0x14, 0xa1, 0x3d, 0xce, 0x04, 0x66, 0xbd,
  0xe9, 0x5e, 0xd4, 0xbd, 0xef, 0x59, 0x4d, 0x3d, 0x42, 0xb6, 0xf5, 0x3d,
  0x20, 0x8c, 0x6c, 0x3d, 0xfc, 0xd7, 0x79, 0x3b, 0x98, 0x18, 0x93, 0xbb,
  0x1b, 0xc8, 0xdb, 0x3b, 0x1a, 0xd5, 0xdf, 0xbd, 0x8a, 0x1c, 0x57, 0xbd,
  0xea, 0x6f, 0x48, 0xbe, 0x69, 0x82, 0x17, 0x3e, 0x6d, 0xdb, 0x5a, 0x3c,
  0x6a, 0x12, 0x8c, 0x3d, 0x11, 0x11, 0x71, 0x3d, 0x82, 0x3f, 0xad, 0x3d,
  0xbd, 0xcc, 0x63, 0x3d, 0xeb, 0x53, 0x9d, 0x3b, 0x5b, 0x9f, 0xa6, 0xbe,
  0xb5, 0xcb, 0x40, 0xbe, 0xe9, 0x24, 0x30, 0xbf, 0xc6, 0xe8, 0xbd, 0xbe,
  0x5d, 0xce, 0x53, 0xbe, 0xc7, 0x46, 0xcd, 0xbd, 0x9f, 0x5b, 0x86, 0x3e,
  0x9a, 0xa3, 0xbb, 0x3d, 0x65, 0xdb, 0x14, 0xbe, 0x71, 0x24, 0xdf, 0x3d,
  0x60, 0xb5, 0xc4, 0x3d, 0xa6, 0xd6, 0x49, 0x3e, 0x96, 0xba, 0xe2, 0x3c,
  0x88, 0xad, 0xb5, 0xbe, 0x3e, 0xb1, 0xb3, 0x3d, 0x97, 0x9e, 0x89, 0x3e,
  0x52, 0x3b, 0x05, 0xbd, 0xb1, 0xc0, 0x6c, 0x3e, 0x23, 0x43, 0x8a, 0xbe,
  0xf8, 0xc4, 0x1b, 0xbe, 0xa0, 0x5d, 0x4c, 0xbe, 0x62, 0xb8, 0xc2, 0xbd,
  0xb2, 0x10, 0x06, 0x3f, 0x55, 0x5d, 0x96, 0x3e, 0x38, 0xd6, 0x48, 0xbd,
  0xa5, 0x88, 0x1c, 0x3e, 0xf2, 0x70, 0x99, 0xbd, 0x9c, 0x9f, 0x11, 0x3d,
  0xe2, 0x1f, 0x4f, 0xbe, 0x7e, 0xeb, 0xa8, 0xbc, 0xf9, 0xd9, 0xbd, 0x3e,
  0x5b, 0x48, 0x37, 0x3e, 0x69, 0x21, 0x28, 0x3d, 0x71, 0x4d, 0x7b, 0xbe,
  0x80, 0x1f, 0x24, 0xbe, 0x06, 0xe4, 0xff, 0xbe, 0x7b, 0x48, 0x48, 0x3e,
  0xba, 0x4a, 0x2f, 0xbe, 0xff, 0xd4, 0xda, 0x3e, 0x6c, 0xab, 0x15, 0xbe,
  0xe8, 0x2e, 0x03, 0xbe, 0xbb, 0x5f, 0x0f, 0x3e, 0x04, 0xbb, 0x4c, 0xbe,
  0x2e, 0x5a, 0x0a, 0x3d, 0xd8, 0x00, 0xcc, 0xbe, 0x5b, 0x39, 0xb8, 0x3e,
  0xd2, 0xb1, 0x84, 0x3e, 0x1e, 0x93, 0xe8, 0x3d, 0x37, 0xd4, 0xa3, 0xbe,
  0xee, 0xe9, 0x5a, 0xbe, 0x12, 0x5a, 0x13, 0x3e, 0x83, 0x10, 0x8e, 0xbe,
  0x02, 0x1e, 0x19, 0xbd, 0x7c, 0xd0, 0x41, 0xbe, 0x93, 0x85, 0x52, 0x3e,
  0xf7, 0xcc, 0xbc, 0xbe, 0x54, 0x65, 0x92, 0xbd, 0x50, 0xeb, 0xd3, 0x3d,
  0xfa, 0xe6, 0x2a, 0xbe, 0x0b, 0x1b, 0x46, 0xbd, 0xce, 0x94, 0x15, 0xbe,
  0xbe, 0x87, 0x5d, 0x3e, 0x51, 0xb9, 0x9f, 0x3d, 0x1c, 0xce, 0xca, 0x3d,
  0xcb, 0x96, 0x03, 0xbe, 0x33, 0x61, 0x25, 0xbc, 0x8f, 0x90, 0x8c, 0x3e,
  0x08, 0xe3, 0xa0, 0xbd, 0xd8, 0x7b, 0xe4, 0x3c, 0xef, 0x24, 0xcd, 0x3d,
  0x5d, 0x17, 0x42, 0x3e, 0x91, 0x9f, 0x91, 0xbd, 0x14, 0x7b, 0x18, 0xbe,
  0xf5, 0x97, 0x0c, 0xbd, 0x56, 0x4c, 0xaa, 0x3d, 0xe2, 0x98, 0x91, 0x3e,
  0x7b, 0xa8, 0xa4, 0xbd, 0x9f, 0xd5, 0xf5, 0x3d, 0x3f, 0xde, 0x41, 0x3d,
  0x3d, 0x7b, 0x31, 0x3e, 0x9b, 0xcf, 0x35, 0xbe, 0x6f, 0xd4, 0x7f, 0xbd,
  0xe2, 0x1d, 0xa8, 0x3d, 0x16, 0xb9, 0x2a, 0xbe, 0xa8, 0x07, 0xde, 0xbd,
  0xb5, 0xac, 0x87, 0xbc, 0xc7, 0x80, 0x6d, 0x3e, 0xd2, 0x8d, 0xbc, 0x3c,
  0x3b, 0xa9, 0x98, 0xbe, 0x74, 0x69, 0x96, 0x3d, 0xee, 0x7d, 0x11, 0x3d,
  0x7e, 0x04, 0x52, 0xbe, 0x8e, 0xf2, 0xaa, 0xbd, 0x15, 0xf9, 0x84, 0xbd,
  0x2d, 0xf3, 0x00, 0x3d, 0x9d, 0xea, 0x80, 0x3e, 0x71, 0x3c, 0x83, 0xbd,
  0x85, 0x00, 0x3c, 0x3c, 0x8e, 0x97, 0xa1, 0xbe, 0x95, 0x70, 0x08, 0xbe,
  0x69, 0x34, 0xb9, 0xbd, 0x57, 0xa3, 0x58, 0x3c, 0x83, 0x9f, 0x49, 0x3e,
  0x1b, 0xc1, 0xbc, 0x3c, 0x0f, 0x99, 0x22, 0xbe, 0x5a, 0x28, 0x96, 0xbd,
  0x03, 0x0e, 0xd0, 0x3d, 0xbf, 0xd4, 0x4f, 0xbe, 0xd1, 0x5b, 0x80, 0xbc,
  0xb9, 0xb7, 0x8a, 0x3e, 0x13, 0x8b, 0xfc, 0x3d, 0x2f, 0xcd, 0x88, 0xbe,
  0xab, 0xd4, 0xb6, 0x3e, 0xde, 0x72, 0x1b, 0x3e, 0x40, 0x02, 0x1f, 0x3d,
  0xf8, 0xdd, 0xc0, 0x3c, 0xbf, 0xe2, 0xa6, 0x3c, 0x68, 0x83, 0x89, 0x3d,
  0xee, 0x66, 0xf6, 0xbe, 0x9f, 0x92, 0xdd, 0xbe, 0x61, 0x88, 0x89, 0xbe,
  0x9b, 0xaa, 0x0f, 0xbe, 0xb1, 0xeb, 0x45, 0x3c, 0x9a, 0xc6, 0x98, 0xbe,
  0xee, 0x52, 0x6f, 0xbe, 0x11, 0x49, 0x0f, 0x3e, 0x54, 0x2d, 0xac, 0x3d,
  0xec, 0xb3, 0x66, 0xbd, 0x45, 0x00, 0xd8, 0x3e, 0x83, 0xbd, 0xf3, 0xbe,
  0x92, 0x61, 0x82, 0x3f, 0xa4, 0x00, 0x7e, 0x3d, 0x48, 0xa9, 0x3d, 0x3e,
  0x68, 0xe5, 0x15, 0x3e, 0x66, 0x2f, 0xac, 0xbe, 0x75, 0x9d, 0xc9, 0xbd,
  0x54, 0xaf, 0x82, 0x3e, 0xb4, 0x6f, 0xb7, 0xbe, 0x97, 0x54, 0x4d, 0xbe,
  0xce, 0x36, 0xb3, 0xbd, 0xf1, 0xc7, 0x77, 0xbd, 0xeb, 0xd6, 0xc8, 0x3d,
  0x66, 0xc5, 0x57, 0x3d, 0xbc, 0x12, 0xe7, 0x3c, 0x20, 0x8d, 0x0a, 0x3d,
  0x53, 0xa5, 0x08, 0xbe, 0x68, 0x52, 0x22, 0x3f, 0xae, 0xae, 0xa1, 0xbc,
  0x90, 0xf8, 0x9c, 0x3b, 0xf8, 0x32, 0x95, 0xbe, 0x18, 0xad, 0x73, 0xbe,
  0x60, 0xe2, 0x4a, 0x3d, 0x93, 0x1b, 0x3b, 0xbe, 0x3d, 0x06, 0x99, 0xbe,
  0x31, 0xd3, 0xbb, 0xbe, 0xaf, 0xef, 0x3d, 0xbd, 0x8f, 0xbf, 0x65, 0xbe,
  0xb8, 0xc8, 0x57, 0x3e, 0xd1, 0x50, 0x35, 0xbe, 0xbc, 0xbc, 0xc3, 0xbe,
  0xc2, 0xfb, 0xc4, 0x3d, 0xba, 0x34, 0x0e, 0xbe, 0x1b, 0xe8, 0x71, 0x3f,
  0xdf, 0xa1, 0x37, 0xbe, 0x4f, 0x32, 0xa4, 0xbd, 0xf8, 0x11, 0x15, 0xbf,
  0x01, 0x90, 0x9a, 0xbb, 0x6d, 0xa4, 0xb3, 0x3d, 0xf2, 0xd8, 0x01, 0xbd,
  0x62, 0xcf, 0x05, 0xbe, 0x97, 0x0e, 0x3d, 0xbe, 0x37, 0x3a, 0x85, 0x3e,
  0x63, 0x2c, 0x06, 0xbe, 0xbe, 0x68, 0x87, 0x3e, 0x17, 0xdf, 0x39, 0x3d,
  0x3d, 0xde, 0x46, 0xbe, 0x8a, 0x7d, 0x01, 0x3e, 0x2f, 0xdf, 0x11, 0x3c,
  0xe8, 0x38, 0x3d, 0x3f, 0xd5, 0x27, 0xb3, 0x3d, 0xbd, 0x71, 0x87, 0x3d,
  0x01, 0x81, 0xc9, 0xbe, 0x7e, 0xc9, 0x19, 0x3d, 0xa2, 0xcd, 0xd8, 0x3e,
  0x72, 0xe7, 0xea, 0xbd, 0xd0, 0x59, 0x58, 0x3e, 0x54, 0x2a, 0x4d, 0xbd,
  0xc6, 0xdc, 0x11, 0x3d, 0x75, 0xf5, 0x48, 0x3d, 0xea, 0xcf, 0x02, 0x3e,
  0x05, 0x3b, 0xdd, 0x3d, 0xa8, 0x45, 0x3d, 0xbe, 0x1f, 0x7a, 0xc5, 0x3e,
  0xc8, 0xc7, 0x22, 0x3e, 0x0f, 0x1a, 0x47, 0x3f, 0xc9, 0xfd, 0x00, 0x3c,
  0xdc, 0xb1, 0x0d, 0xbe, 0xa8, 0xec, 0xa6, 0xbd, 0xa4, 0x9a, 0x20, 0xbe,
  0x34, 0x10, 0xab, 0xbe, 0x12, 0xb4, 0x7b, 0x3c, 0x4a, 0x78, 0x67, 0x3e,
  0xc2, 0x5b, 0xf3, 0xbb, 0xb2, 0xfe, 0x11, 0x3d, 0x80, 0x51, 0x11, 0x3e,
  0x76, 0x69, 0xb7, 0xbd, 0xb3, 0x9f, 0x50, 0x3d, 0xf4, 0xb6, 0xdf, 0xbe,
  0xf9, 0x53, 0x33, 0xbd, 0xb5, 0x12, 0x08, 0xbe, 0x26, 0x55, 0x81, 0xbd,
  0xfa, 0x85, 0xee, 0x3d, 0x99, 0x92, 0xa3, 0x3d, 0x2c, 0x4a, 0x63, 0xbd,
  0xe8, 0xcd, 0x3e, 0xbe, 0x72, 0x05, 0x22, 0xbc, 0x60, 0x22, 0xbf, 0x3d,
  0x84, 0x96, 0x55, 0x3d, 0x74, 0x5f, 0xfb, 0xbd, 0xd4, 0x18, 0x9a, 0xbe,
  0x79, 0xcb, 0xad, 0xbd, 0xb8, 0x7d, 0x5b, 0xbe, 0xed, 0x2b, 0x98, 0xbd,
  0x46, 0x5e, 0x93, 0xbe, 0xb8, 0x02, 0xcb, 0xbd, 0x43, 0xf2, 0x4d, 0xbe,
  0x17, 0x54, 0x17, 0xbe, 0x9a, 0xa2, 0x8c, 0xbe, 0x31, 0x1f, 0xb5, 0x3c,
  0x11, 0xb7, 0x74, 0xbe, 0x1d, 0x89, 0x26, 0xbe, 0x8b, 0x9e, 0x16, 0x3d,
  0xcf, 0xcd, 0x91, 0xbc, 0x90, 0x20, 0xb2, 0x3c, 0x6f, 0x53, 0x5a, 0xbe,
  0x3c, 0x94, 0x4f, 0x3e, 0xa6, 0xea, 0xb0, 0xbe, 0xd6, 0xd3, 0xa2, 0xbd,
  0xc6, 0x3a, 0x38, 0xbe, 0x4b, 0x79, 0x58, 0xbc, 0x6d, 0x03, 0x33, 0xbe,
  0x89, 0x8c, 0xc3, 0xbd, 0x0f, 0x50, 0x27, 0xbd, 0x38, 0x69, 0xe3, 0xbd,
  0x34, 0x7b, 0x11, 0x3e, 0xf5, 0xb5, 0x83, 0xbe, 0xbd, 0xac, 0x3a, 0xbb,
  0x32, 0x10, 0x23, 0xbe, 0xf9, 0x23, 0x29, 0xbe, 0xe8, 0x51, 0x92, 0xbd,
  0x0a, 0x4a, 0x8f, 0xbe, 0xf7, 0xd6, 0xc6, 0x3d, 0xc4, 0xf9, 0x42, 0xbe,
  0x3a, 0xe2, 0xd7, 0x3c, 0xa7, 0xcd, 0x51, 0x3d, 0x37, 0x00, 0x55, 0xbe,
  0xfb, 0x6b, 0xcd, 0x3d, 0x7a, 0xd1, 0x49, 0x3c, 0xa6, 0x52, 0x26, 0xbe,
  0x54, 0x7e, 0xa0, 0x3d, 0x00, 0x14, 0x58, 0x3d, 0x50, 0x03, 0xb7, 0xbd,
  0xf7, 0xb8, 0xb7, 0xbd, 0xb1, 0x8d, 0x8b, 0xbe, 0x56, 0x83, 0x29, 0x3e,
  0x98, 0xda, 0x99, 0xbd, 0x52, 0x81, 0x3d, 0xbb, 0xaa, 0x84, 0x54, 0xbe,
  0xe5, 0x51, 0x1e, 0xbe, 0x67, 0x73, 0xe6, 0x3b, 0x33, 0x28, 0x2c, 0xbe,
  0x28, 0xe5, 0xb3, 0xbd, 0x9c, 0x1f, 0xb5, 0x3a, 0xc6, 0x14, 0xa7, 0xbd,
  0x93, 0xa5, 0xda, 0xbd, 0x78, 0xc0, 0xed, 0xbd, 0x35, 0xff, 0x54, 0xbe,
  0x1e, 0x4b, 0x45, 0xbe, 0xb4, 0x44, 0x17, 0xbd, 0x62, 0x56, 0xb6, 0xbc,
  0x18, 0x48, 0x04, 0x3e, 0xa9, 0x79, 0x8d, 0xbe, 0x56, 0xcc, 0x68, 0xbe,
  0x9f, 0xc2, 0x35, 0x3e, 0x3f, 0xc9, 0xde, 0xbc, 0xb3, 0x51, 0x7d, 0x3d,
  0x3b, 0x9a, 0x05, 0x3e, 0xb4, 0xdf, 0xb0, 0x3b, 0xc1, 0x02, 0x0c, 0x3c,
  0x8d, 0xa6, 0xa2, 0xbe, 0x29, 0x44, 0x68, 0xbe, 0xb0, 0x12, 0x34, 0xbd,
  0xc5, 0xdc, 0xed, 0x3c, 0xa6, 0x56, 0xaf, 0xbd, 0x94, 0x41, 0x19, 0xbd,
  0x35, 0xf0, 0xfc, 0x3d, 0xdb, 0xff, 0x95, 0x3d, 0xae, 0xa3, 0x8d, 0x3d,
  0x59, 0xa8, 0x96, 0xbe, 0xf6, 0xff, 0x21, 0x3e, 0x64, 0xf3, 0xd2, 0xbd,
  0x05, 0x64, 0x12, 0xbe, 0xa8, 0xa1, 0x93, 0x3d, 0x0e, 0xb1, 0x89, 0xbe,
  0xd8, 0x1a, 0x78, 0xbe, 0x94, 0xfd, 0x5f, 0xbe, 0x9a, 0xbc, 0x42, 0x3d,
  0xcd, 0xac, 0x63, 0x3d, 0x01, 0x54, 0x09, 0x3d, 0xa7, 0x55, 0x4b, 0xbe,
  0xae, 0xdc, 0x5c, 0xbe, 0xa7, 0x43, 0x79, 0xbd, 0xc8, 0xaf, 0x96, 0xbd,
  0xb1, 0x39, 0xc7, 0x3d, 0x64, 0x07, 0x8e, 0xbe, 0x7a, 0x9d, 0x2b, 0xbe,
  0xe0, 0x57, 0x52, 0xbe, 0x8f, 0x17, 0x4a, 0xbe, 0xa5, 0xbc, 0x55, 0xbd,
  0x99, 0xb6, 0x4f, 0x3c, 0xdd, 0x2f, 0x62, 0xbe, 0xf0, 0x72, 0x6c, 0xbd,
  0x4b, 0xd5, 0x62, 0xbe, 0x50, 0x9f, 0x8e, 0x3c, 0xbe, 0x70, 0x97, 0xbd,
  0xa1, 0x5d, 0x69, 0xbe, 0xb9, 0x65, 0x0f, 0xbd, 0xc2, 0x2c, 0xef, 0xbd,
  0x3b, 0xc8, 0x72, 0x3d, 0x23, 0xf7, 0x9a, 0xbd, 0xdd, 0x23, 0x95, 0xbe,
  0xf0, 0xb6, 0x7d, 0xbd, 0x67, 0x0b, 0x6f, 0xbe, 0xf0, 0xfe, 0x9d, 0x3d,
  0xcf, 0x06, 0x3b, 0xbc, 0x01, 0x7d, 0x1b, 0x3e, 0x1b, 0x98, 0xa2, 0xbe,
  0xae, 0x55, 0x66, 0xbe, 0xd2, 0x54, 0x2c, 0xbf, 0xf8, 0x72, 0xc4, 0xbc,
  0x3c, 0x52, 0x51, 0xbe, 0x8e, 0x05, 0x3f, 0x3d, 0x0a, 0x45, 0x66, 0x3e,
  0xd7, 0xbe, 0x56, 0x3e, 0x15, 0x1a, 0xdb, 0xbd, 0xd7, 0xf0, 0x33, 0xbf,
  0x51, 0x57, 0x7e, 0x3d, 0xf4, 0xee, 0x13, 0xbd, 0xca, 0xa0, 0xcc, 0xbe,
  0x56, 0xef, 0xd0, 0x3c, 0xb3, 0xab, 0x65, 0x3c, 0x9c, 0x7e, 0xa4, 0x3e,
  0x24, 0x5d, 0x38, 0x3e, 0x27, 0x8f, 0xc6, 0x3e, 0xc2, 0x31, 0xcc, 0x3d,
  0xa6, 0xd0, 0x5b, 0xbe, 0x7f, 0xe7, 0x33, 0xbe, 0x0b, 0xcc, 0xeb, 0x3c,
  0x7f, 0x35, 0xb5, 0x3e, 0x9b, 0x9e, 0x62, 0x3e, 0x6b, 0x73, 0x2c, 0x3e,
  0x78, 0x52, 0x21, 0x3e, 0xc8, 0x40, 0xdc, 0xbb, 0x2a, 0x3f, 0xe6, 0x3d,
  0x00, 0x26, 0x54, 0xbe, 0xf1, 0x3d, 0x9a, 0xbc, 0x8d, 0xdc, 0x22, 0x3e,
  0x71, 0x74, 0x39, 0x3e, 0xbf, 0x96, 0xcb, 0xbe, 0xc0, 0xab, 0x1e, 0xbe,
  0x88, 0xcd, 0x09, 0x3f, 0xd2, 0x95, 0xb1, 0xbd, 0xe9, 0x55, 0xa1, 0x3e,
  0xcc, 0xf9, 0xfc, 0xbc, 0x22, 0xe7, 0x69, 0x3e, 0xe3, 0x8b, 0x41, 0x3e,
  0x08, 0x26, 0x57, 0x3c, 0x40, 0x2c, 0x6f, 0x3e, 0x11, 0xfb, 0x5c, 0xbe,
  0xb2, 0x09, 0x21, 0x3e, 0x2a, 0x65, 0xe7, 0xbe, 0xe0, 0x38, 0x9e, 0xbd,
  0xc1, 0x1f, 0xe8, 0x3d, 0x2b, 0xcb, 0x12, 0xba, 0xda, 0x3a, 0xbc, 0xbe,
  0xcb, 0xed, 0xb6, 0x3d, 0xfe, 0xe8, 0x17, 0x3f, 0x0e, 0x5c, 0x71, 0x3c,
  0xbf, 0x31, 0x17, 0xbe, 0x68, 0x0e, 0xaa, 0xbe, 0x13, 0x87, 0x3a, 0x3e,
  0x24, 0xf1, 0x1d, 0x3e, 0x1c, 0xd9, 0x5e, 0xbd, 0xd7, 0x3b, 0x05, 0x3d,
  0xbc, 0xdf, 0xdb, 0xbd, 0x10, 0x85, 0x8c, 0xbd, 0xd6, 0x70, 0x26, 0xbe,
  0xe9, 0x83, 0x99, 0x3c, 0xd7, 0xb7, 0xa4, 0x3b, 0x9b, 0xe4, 0x87, 0xbe,
  0x36, 0x84, 0x19, 0x3a, 0x4c, 0xf9, 0x45, 0x3c, 0xe6, 0x9d, 0x0e, 0x3f,
  0xb1, 0x81, 0xe0, 0xbe, 0x1e, 0xbb, 0x23, 0x3e, 0x83, 0x7c, 0xaa, 0xbe,
  0x76, 0x19, 0xca, 0xbe, 0xde, 0x4a, 0x23, 0x3c, 0xd7, 0x7b, 0xc6, 0x3d,
  0x44, 0x42, 0x73, 0xbb, 0x0a, 0x99, 0x45, 0xbe, 0x14, 0x75, 0xa6, 0x3c,
  0x89, 0x7b, 0x62, 0xbe, 0x7f, 0x77, 0x9a, 0x3d, 0x5c, 0xa5, 0x3a, 0x3e,
  0x86, 0x47, 0x98, 0xbe, 0x05, 0x46, 0xf9, 0xbc, 0x47, 0xc9, 0x31, 0xbc,
  0x88, 0x06, 0xe7, 0x3e, 0xba, 0x2a, 0x2a, 0xbd, 0x20, 0xe7, 0x5e, 0xbd,
  0x7a, 0x9d, 0x5f, 0xbe, 0xf9, 0x19, 0xc6, 0xbe, 0xf7, 0x1f, 0x50, 0xbe,
  0x68, 0x68, 0x0c, 0x3e, 0x9f, 0x7a, 0x41, 0x3d, 0xd5, 0xb0, 0x36, 0xbe,
  0xf6, 0xa4, 0xb9, 0x3e, 0x09, 0xb2, 0x92, 0xbe, 0xfc, 0x07, 0xb5, 0xbe,
  0xa8, 0x95, 0x24, 0xbd, 0x77, 0x84, 0xf0, 0x3d, 0xb8, 0x47, 0x03, 0xbd,
  0xc0, 0x3c, 0x8a, 0x3c, 0xda, 0xc8, 0x96, 0xbe, 0x84, 0x85, 0x8e, 0xbd,
  0x92, 0x91, 0xab, 0xbd, 0xef, 0x8d, 0xc2, 0xbd, 0x79, 0x25, 0x36, 0x3b,
  0x41, 0x3a, 0xf7, 0xbc, 0x54, 0xd7, 0xa3, 0xbd, 0xb8, 0x37, 0x9f, 0x3d,
  0xfb, 0xf3, 0xb4, 0xbd, 0x67, 0xd7, 0x45, 0x3d, 0x86, 0x94, 0xf3, 0x3c,
  0x2c, 0x64, 0xb3, 0xbd, 0x7d, 0x73, 0xef, 0xbb, 0x89, 0x86, 0xf7, 0xbd,
  0x85, 0x98, 0x56, 0xbe, 0x31, 0x87, 0x26, 0xbf, 0x5e, 0x30, 0x50, 0xbe,
  0xa2, 0x15, 0xd4, 0x3d, 0x0b, 0xb8, 0xed, 0x3d, 0x57, 0xed, 0x95, 0x3d,
  0xb8, 0x15, 0x92, 0xbd, 0xef, 0x1f, 0x6c, 0x3e, 0x1c, 0xf2, 0x87, 0x3e,
  0x3a, 0x46, 0x98, 0xbe, 0x78, 0x3d, 0x71, 0xbe, 0x25, 0xc2, 0xd0, 0xbe,
  0x6d, 0x4a, 0xc2, 0xbd, 0x27, 0xa4, 0xeb, 0x3e, 0x61, 0x69, 0xc1, 0xbd,
  0xeb, 0x82, 0x1e, 0xbf, 0xdc, 0x25, 0x87, 0xbe, 0x47, 0x1f, 0x02, 0xbe,
  0xbb, 0x24, 0x5d, 0x3f, 0xfd, 0xc2, 0xa9, 0x3d, 0x1b, 0xd6, 0x4e, 0x3e,
  0x13, 0xc2, 0x79, 0xbd, 0x33, 0xef, 0xfa, 0xbe, 0x02, 0x8f, 0x1b, 0x3d,
  0xe2, 0x3b, 0xcf, 0x3c, 0xae, 0x2e, 0xad, 0xbe, 0xc9, 0xd2, 0xde, 0xbe,
  0x3e, 0x16, 0xf1, 0xbe, 0x14, 0xf7, 0xc7, 0x3d, 0xb8, 0xb3, 0x34, 0x3f,
  0xe8, 0xaf, 0xff, 0xbd, 0x3b, 0xf1, 0xcb, 0xbc, 0xf4, 0xaa, 0x0a, 0x3e,
  0x7d, 0x34, 0x93, 0xbe, 0xfc, 0x53, 0x4a, 0x3f, 0xf5, 0x58, 0x74, 0x3e,
  0x16, 0x4a, 0xbe, 0xbc, 0x28, 0x0a, 0x06, 0x3e, 0xa9, 0xb8, 0x8d, 0xbe,
  0x84, 0xb7, 0x83, 0xbe, 0x49, 0x88, 0x10, 0x3e, 0x15, 0x3f, 0xdc, 0xbe,
  0x9c, 0x70, 0x18, 0xbe, 0x7c, 0x69, 0x9c, 0xbe, 0x7b, 0xe8, 0x37, 0x3e,
  0x94, 0x6d, 0xed, 0x3e, 0xb1, 0x5c, 0xdc, 0x3d, 0x81, 0x6a, 0x57, 0x3e,
  0xfd, 0xdc, 0xd5, 0x3d, 0x2f, 0x34, 0x1f, 0x3e, 0xc2, 0x7b, 0x80, 0x3f,
  0x79, 0x7e, 0x12, 0x3e, 0x38, 0x9a, 0x8d, 0x3e, 0xee, 0x09, 0x76, 0x3e,
  0x68, 0xf1, 0x1d, 0xbe, 0x19, 0xd0, 0xa0, 0x3d, 0xd5, 0x0b, 0xde, 0x3d,
  0x62, 0xea, 0x6b, 0xbe, 0x54, 0xad, 0xe1, 0xbd, 0x0f, 0x22, 0xec, 0x3b,
  0xdf, 0x64, 0x81, 0x3c, 0x8e, 0xc1, 0xe6, 0x3d, 0x24, 0x93, 0x5d, 0x3e,
  0x7f, 0xd3, 0xf9, 0x3d, 0x13, 0x1d, 0xd8, 0x3d, 0x5e, 0x6f, 0xd0, 0xbd,
  0x1b, 0xd4, 0x73, 0x3f, 0x06, 0x4d, 0x27, 0x3d, 0x45, 0xf1, 0x55, 0x3e,
  0x65, 0x0b, 0x2a, 0x3e, 0xea, 0xf1, 0xd5, 0xbc, 0x72, 0x84, 0x93, 0x3e,
  0x71, 0xbc, 0xf5, 0x3e, 0xec, 0xa4, 0x09, 0xbe, 0xf0, 0x78, 0xa5, 0xbd,
  0x79, 0x35, 0x9f, 0xbe, 0xc4, 0x8c, 0x9b, 0xbd, 0x55, 0x74, 0x01, 0x3e,
  0xde, 0xbb, 0x4e, 0xbd, 0xd7, 0xb7, 0xb4, 0x3d, 0x62, 0x2d, 0x79, 0xbe,
  0x6d, 0x51, 0x95, 0xbe, 0x7a, 0xf5, 0x89, 0x3f, 0x16, 0xb5, 0x13, 0x3e,
  0x7e, 0xc5, 0x27, 0x3e, 0x98, 0xe3, 0xc8, 0xbe, 0x6d, 0x9d, 0x16, 0xbf,
  0x8d, 0x77, 0xe0, 0xbe, 0xbe, 0x4a, 0x0b, 0xbd, 0xde, 0xd7, 0x7c, 0xbd,
  0xba, 0xbc, 0xda, 0xbe, 0xa2, 0xc1, 0x83, 0xbd, 0x0d, 0x19, 0x60, 0x3d,
  0x2a, 0xf5, 0x54, 0xbd, 0xff, 0xdf, 0x6e, 0xbd, 0x95, 0x1e, 0xd8, 0xbc,
  0xf3, 0xe8, 0xf5, 0xb9, 0x96, 0x6a, 0xd5, 0xbd, 0x8b, 0x92, 0x01, 0x3b,
  0x4a, 0x7c, 0xe2, 0xbc, 0xe6, 0x41, 0x74, 0xbd, 0x30, 0x62, 0x82, 0xbc,
  0x38, 0x02, 0x5f, 0xbe, 0x10, 0xb3, 0x8d, 0xbd, 0x80, 0x8e, 0x17, 0xbe,
  0xeb, 0xda, 0x09, 0x3d, 0xdd, 0x36, 0xe2, 0xbd, 0xc5, 0x40, 0x88, 0xbc,
  0x2c, 0xb4, 0x3f, 0xbe, 0xf6, 0x45, 0x10, 0x3e, 0x9b, 0x0c, 0x62, 0x3e,
  0x71, 0xf9, 0x9d, 0xbe, 0x77, 0xff, 0x84, 0x3e, 0x11, 0xea, 0x08, 0x3e,
  0x2d, 0xaf, 0x42, 0xbe, 0xeb, 0x3b, 0x38, 0x3d, 0x7c, 0xf2, 0xef, 0xbd,
  0xaf, 0x9f, 0xce, 0xbd, 0xed, 0x2a, 0x73, 0xbe, 0xae, 0xf6, 0x30, 0xbf,
  0x76, 0x52, 0x28, 0xbf, 0xea, 0xc5, 0x91, 0xbe, 0x23, 0x34, 0x06, 0x3d,
  0xdb, 0xd1, 0x96, 0xbd, 0x4e, 0xa2, 0xcc, 0xbd, 0x09, 0xda, 0x01, 0xbf,
  0x9f, 0xf9, 0xec, 0x3d, 0xd7, 0xb7, 0x0c, 0x3e, 0xf2, 0x26, 0x10, 0x3e,
  0xe0, 0xeb, 0xce, 0xbe, 0x62, 0xba, 0x23, 0xbf, 0xe6, 0xa3, 0x64, 0x3e,
  0xc1, 0xb1, 0x4b, 0x3d, 0xdf, 0x87, 0x1a, 0x3e, 0xdd, 0x4b, 0xba, 0xbe,
  0x3e, 0xcf, 0x17, 0xbe, 0x4d, 0xfc, 0xab, 0xbe, 0x6b, 0xe5, 0x0e, 0xbf,
  0xb9, 0x22, 0xd3, 0xbe, 0x24, 0xc3, 0x0b, 0x3e, 0xeb, 0x0c, 0xbe, 0xbc,
  0x99, 0xa6, 0x5b, 0xbf, 0x24, 0x98, 0xc6, 0x3d, 0x01, 0xbd, 0xdb, 0xbe,
  0x75, 0x0e, 0xb5, 0xbe, 0xc1, 0xa0, 0xa0, 0xbd, 0x31, 0xfd, 0x5a, 0xbf,
  0xa2, 0x08, 0x23, 0xbe, 0x19, 0xcd, 0xaa, 0xbe, 0xd9, 0xac, 0x00, 0xbe,
  0x30, 0xf2, 0xbc, 0xbd, 0x11, 0xf8, 0x65, 0xbe, 0xaa, 0x6d, 0x25, 0xbc,
  0xae, 0xf6, 0xea, 0xbe, 0x35, 0x1d, 0xa5, 0xbe, 0xb3, 0xf9, 0x7b, 0xbd,
  0xd3, 0xc5, 0xa1, 0xbb, 0x2e, 0x34, 0x23, 0xbf, 0x85, 0x09, 0x1d, 0xbf,
  0x52, 0x3e, 0x9e, 0x3d, 0x1c, 0xb7, 0xda, 0xbe, 0x65, 0x2e, 0xb1, 0xbd,
  0x8d, 0xba, 0x3d, 0xbf, 0xeb, 0x65, 0x76, 0xbc, 0x8e, 0x22, 0x92, 0xbe,
  0x8b, 0x18, 0xd6, 0xbe, 0x1d, 0x45, 0xac, 0xbc, 0x42, 0x67, 0x56, 0x3e,
  0x42, 0x1e, 0x13, 0xbd, 0x22, 0x9a, 0x57, 0x3e, 0xd8, 0x5b, 0x89, 0xbd,
  0xa5, 0xba, 0x90, 0x3c, 0xf3, 0xf1, 0xb4, 0x3d, 0xb1, 0x8f, 0x8c, 0x3e,
  0x19, 0x91, 0xee, 0x3c, 0xea, 0x1c, 0xd0, 0xbe, 0x92, 0xe0, 0x7d, 0x3e,
  0xd6, 0x77, 0xfa, 0x3d, 0xd2, 0xf3, 0x5b, 0xbf, 0xd8, 0x07, 0xcd, 0x3b,
  0x5e, 0xc6, 0xba, 0xbe, 0x0d, 0x5d, 0x9f, 0xbd, 0xa4, 0x2f, 0xcd, 0xbe,
  0x0c, 0x34, 0x55, 0x3e, 0xa3, 0xa9, 0xd0, 0xbe, 0xef, 0x5a, 0x94, 0x3d,
  0xd6, 0x23, 0xea, 0xbc, 0x57, 0x79, 0xbf, 0x3d, 0x48, 0x29, 0x1d, 0xb9,
  0x6f, 0x9a, 0xd8, 0x3d, 0xd0, 0x4d, 0xc4, 0x3d, 0xc1, 0x73, 0x01, 0xbf,
  0xda, 0x48, 0xbf, 0x3e, 0x3b, 0x0e, 0xf5, 0x3d, 0x7b, 0xea, 0xd2, 0xbe,
  0xca, 0x30, 0x34, 0xbb, 0xd3, 0x54, 0x4c, 0xbd, 0xb1, 0x32, 0x0d, 0xbd,
  0x06, 0xcc, 0x13, 0xbf, 0x7c, 0xcd, 0x77, 0xbe, 0x9d, 0x1d, 0xfb, 0xbe,
  0x67, 0xa4, 0x22, 0x3c, 0x78, 0x25, 0x17, 0x3c, 0x3d, 0x2c, 0x5a, 0xbd,
  0x6f, 0x90, 0xfa, 0x3c, 0xf7, 0xa2, 0x06, 0xbd, 0xb5, 0x41, 0x7e, 0x3d,
  0x68, 0x41, 0x7c, 0xbe, 0xb2, 0x97, 0x54, 0xbc, 0x15, 0x0e, 0x14, 0x3e,
  0xf0, 0xb8, 0x94, 0xbd, 0xcf, 0x7f, 0x03, 0x3e, 0x1d, 0xc1, 0x0e, 0x3d,
  0xf4, 0xa4, 0x9f, 0x3d, 0x96, 0x5a, 0x12, 0xbe, 0x3d, 0x82, 0x62, 0xbe,
  0xe4, 0x61, 0x72, 0xbe, 0x42, 0x83, 0x23, 0x3e, 0x22, 0xbe, 0x96, 0x3d,
  0x3e, 0x71, 0xac, 0xbd, 0x9a, 0x08, 0x11, 0x3e, 0xaa, 0xed, 0x1f, 0xbd,
  0x69, 0x25, 0x87, 0xbd, 0xee, 0xe1, 0xe6, 0xbe, 0xec, 0xd3, 0xfb, 0xbd,
  0x97, 0x75, 0x30, 0xbe, 0xb0, 0xdc, 0x0b, 0x3d, 0x09, 0xc1, 0x9a, 0xbe,
  0x5e, 0xb9, 0xee, 0xbd, 0xc1, 0x78, 0xf8, 0xbe, 0x66, 0x1c, 0xb5, 0xbe,
  0xc9, 0x31, 0xbd, 0xbe, 0x55, 0xad, 0x57, 0x3d, 0x67, 0x9d, 0xaf, 0xbd,
  0x6f, 0xda, 0x17, 0xbf, 0x33, 0xff, 0x72, 0xbe, 0xd6, 0x71, 0xfa, 0xbe,
  0xf6, 0xf1, 0xa6, 0x3e, 0x9f, 0x57, 0xb1, 0xbd, 0x3a, 0x5f, 0x87, 0x3d,
  0x63, 0xa9, 0xd5, 0x3c, 0x47, 0x03, 0x6d, 0xbd, 0x7c, 0x28, 0xe1, 0x3d,
  0xa1, 0x49, 0x1e, 0xbd, 0x1c, 0x81, 0x62, 0xbd, 0xe5, 0xe7, 0x2b, 0xbe,
  0xcb, 0xa9, 0x9a, 0x3e, 0xc7, 0xaf, 0x48, 0xbe, 0xf7, 0xc0, 0xba, 0x3d,
  0xb1, 0x59, 0xee, 0x3c, 0x65, 0xc2, 0x7a, 0x3d, 0x29, 0x29, 0x6c, 0xbe,
  0x43, 0x0b, 0x31, 0xbd, 0xc6, 0x6d, 0x13, 0x3e, 0x08, 0xb0, 0x34, 0xbd,
  0x6c, 0x59, 0x3d, 0xbd, 0x71, 0x10, 0x5e, 0x3e, 0x42, 0x55, 0x2f, 0xbe,
  0x3e, 0xab, 0xb2, 0x3e, 0x9c, 0x89, 0x15, 0xbe, 0xe7, 0x9e, 0x06, 0xbe,
  0xfd, 0xd4, 0x1b, 0xbe, 0xcd, 0x73, 0x1f, 0xbe, 0x56, 0xf2, 0x61, 0xbe,
  0xfa, 0x1a, 0x5d, 0xbd, 0x8d, 0x5a, 0x03, 0xbe, 0xbc, 0x9c, 0xa3, 0xbe,
  0x2f, 0xa5, 0x0a, 0xbe, 0xee, 0xcf, 0xaa, 0xbe, 0x05, 0x20, 0xbe, 0x3e,
  0xbb, 0xef, 0x35, 0xbe, 0xb2, 0x15, 0xb6, 0xbd, 0xf1, 0xc2, 0xa5, 0x3e,
  0x04, 0xba, 0xa2, 0xbe, 0xa1, 0xb3, 0x81, 0x3e, 0x37, 0x86, 0x30, 0xbb,
  0xff, 0x05, 0xb3, 0x3c, 0x63, 0x89, 0xd1, 0xbd, 0xcd, 0xf5, 0xca, 0xbd,
  0x5a, 0x89, 0x15, 0xbd, 0xdc, 0x87, 0x6e, 0xbc, 0xd2, 0x8a, 0xe6, 0xbb,
  0x3f, 0x20, 0x94, 0xbe, 0x15, 0x72, 0x10, 0xbe, 0x08, 0xad, 0xf1, 0xbd,
  0x14, 0x89, 0x28, 0x3e, 0x4f, 0xb8, 0xc7, 0x3d, 0x78, 0xc7, 0xa6, 0xbe,
  0x4f, 0xda, 0x03, 0x3e, 0xee, 0xbf, 0x46, 0xbe, 0x23, 0xac, 0x19, 0x3e,
  0xd8, 0xe3, 0x63, 0xbe, 0xd2, 0x49, 0x6d, 0xbd, 0xd6, 0x2e, 0x76, 0xbe,
  0xba, 0x81, 0x00, 0xbe, 0xe0, 0xa5, 0xa7, 0xbd, 0x9f, 0x7f, 0x4b, 0x3d,
  0x46, 0x54, 0xf7, 0x3d, 0x31, 0x4d, 0x3d, 0xbe, 0x28, 0x4b, 0x85, 0xbb,
  0x44, 0x37, 0x60, 0xbe, 0xc5, 0x81, 0xa1, 0x3d, 0xc8, 0xa2, 0x5d, 0xbd,
  0x1d, 0x43, 0x22, 0xbd, 0x16, 0x10, 0xd3, 0x3d, 0xaf, 0x96, 0x6a, 0xbe,
  0x54, 0x57, 0xf0, 0x3c, 0x9c, 0xfa, 0x05, 0xbd, 0x4a, 0xae, 0x03, 0xbe,
  0x6d, 0x98, 0x97, 0xbe, 0xac, 0xae, 0x93, 0xbe, 0xb9, 0x4c, 0xb5, 0xbd,
  0x32, 0xfa, 0x83, 0x3d, 0x45, 0x59, 0x12, 0xbe, 0x1b, 0x27, 0x3f, 0xbe,
  0x5f, 0xf2, 0x95, 0xbd, 0x2a, 0x6a, 0x47, 0xbe, 0x6f, 0xf7, 0xff, 0xbd,
  0x21, 0x55, 0x1b, 0xbe, 0xba, 0x56, 0x94, 0xbe, 0x3d, 0xaf, 0x1b, 0xbe,
  0x54, 0x24, 0x09, 0xbe, 0x69, 0x1c, 0x72, 0x3d, 0xef, 0xfd, 0x04, 0xbe,
  0xc2, 0xc4, 0xaf, 0xbe, 0xc8, 0x25, 0xc3, 0xbe, 0x68, 0x10, 0x02, 0xbf,
  0xd1, 0x02, 0xa6, 0xbd, 0x9f, 0xda, 0x39, 0xbe, 0xd2, 0xf5, 0xc3, 0xbe,
  0x7e, 0x76, 0xc5, 0xbe, 0x2b, 0xf0, 0x2b, 0xbe, 0xd9, 0x5e, 0xaa, 0xbe,
  0x5b, 0x11, 0xff, 0xbd, 0xef, 0xeb, 0x4e, 0xbd, 0x51, 0x7d, 0x8a, 0xbe,
  0x0e, 0xc8, 0x0e, 0xbd, 0x63, 0xaa, 0xcd, 0x3d, 0x70, 0x1a, 0x8d, 0x3d,
  0x60, 0x8f, 0xa4, 0x3d, 0xba, 0xea, 0x5b, 0xbe, 0x92, 0xed, 0x6c, 0xbe,
  0x1f, 0x3d, 0x85, 0xbc, 0xd8, 0xc0, 0x74, 0xbe, 0xc8, 0x42, 0x51, 0x3d,
  0x88, 0x44, 0xa5, 0x3d, 0x25, 0x3e, 0x9c, 0xbd, 0x4a, 0x64, 0x7b, 0x3d,
  0x70, 0x27, 0x86, 0xbe, 0xc9, 0xea, 0x84, 0xbe, 0xcd, 0x03, 0xbc, 0x3d,
  0x05, 0xde, 0x1b, 0x3e, 0x8a, 0xc2, 0x9a, 0xbd, 0xfb, 0x76, 0xa2, 0x3b,
  0xbd, 0x3e, 0x1e, 0xbe, 0x51, 0x6f, 0x34, 0xbe, 0x61, 0x2a, 0xc9, 0xbd,
  0x4d, 0xa3, 0x66, 0xbe, 0x04, 0xeb, 0x5c, 0xbe, 0x77, 0x50, 0x3e, 0x3e,
  0x45, 0x91, 0x29, 0x3e, 0xc6, 0x9f, 0xe3, 0x3d, 0x6f, 0xb6, 0xa3, 0xbe,
  0xd2, 0x2f, 0x13, 0xbd, 0x73, 0x35, 0x7c, 0xbd, 0x47, 0xdd, 0xef, 0xbd,
  0xbc, 0x75, 0x21, 0xbe, 0xb4, 0x66, 0xe0, 0x3c, 0x32, 0x0a, 0x38, 0xbe,
  0x4c, 0xa0, 0x64, 0xbd, 0x0c, 0x42, 0x8c, 0x3d, 0x37, 0xf6, 0x94, 0x39,
  0x5a, 0x93, 0x99, 0x3d, 0xe1, 0x2a, 0x97, 0xbe, 0x3d, 0x2b, 0x0a, 0xbe,
  0x98, 0x06, 0x89, 0x3d, 0x82, 0x02, 0xe1, 0xbd, 0xe5, 0x20, 0x72, 0x3d,
  0x16, 0xe6, 0x75, 0xbe, 0x3a, 0x95, 0x50, 0x3d, 0x34, 0x3b, 0x5a, 0xbe,
  0x21, 0xcb, 0x69, 0xbe, 0xdb, 0x15, 0xfb, 0x3d, 0x5c, 0x67, 0x07, 0xbe,
  0x13, 0x88, 0xca, 0xbd, 0xca, 0x03, 0x86, 0xbe, 0x38, 0x2b, 0xd3, 0x3d,
  0xb2, 0x16, 0xd6, 0xbd, 0xbb, 0xb5, 0xc5, 0x3c, 0x6d, 0xed, 0x52, 0xbe,
  0x89, 0xae, 0x49, 0xbe, 0xa9, 0xd0, 0x0b, 0x3e, 0x0d, 0x76, 0xaf, 0xbd,
  0x5d, 0x9d, 0x2a, 0xbe, 0x42, 0xb2, 0x12, 0xbe, 0x86, 0x37, 0x27, 0x3e,
  0x52, 0x88, 0x63, 0xbd, 0xe5, 0xbe, 0xf9, 0xbd, 0x24, 0x1f, 0xf1, 0x3c,
  0x0a, 0x5c, 0x0a, 0x3e, 0x4f, 0x86, 0x33, 0x3d, 0x64, 0x44, 0x06, 0xbe,
  0xdd, 0x1c, 0x15, 0x3e, 0x24, 0x66, 0x67, 0xbe, 0x94, 0x7e, 0x3c, 0xbe,
  0x6e, 0x84, 0x2c, 0xbe, 0xb1, 0xaa, 0xcd, 0x3c, 0x48, 0x1c, 0xa1, 0xbe,
  0xcb, 0xf9, 0x9c, 0xbb, 0xef, 0x91, 0x75, 0x3c, 0x2c, 0x1e, 0xfc, 0xbd,
  0xe3, 0x96, 0xbf, 0xbd, 0xc5, 0xdf, 0x89, 0xbd, 0xa3, 0xd7, 0x84, 0xbe,
  0xc4, 0x45, 0x2c, 0xbe, 0xff, 0x92, 0x8d, 0xbe, 0xbf, 0x09, 0x71, 0xbe,
  0xdd, 0x0f, 0x06, 0xbe, 0x23, 0x7e, 0x8e, 0x3d, 0xd7, 0xd7, 0x34, 0x3c,
  0x35, 0xdc, 0x3b, 0xbc, 0x97, 0x7b, 0x4b, 0xbe, 0xb3, 0x0e, 0x6d, 0xbe,
  0x6c, 0x52, 0x91, 0xbe, 0xcf, 0x68, 0x51, 0x3d, 0xab, 0xdf, 0x5a, 0xbd,
  0x01, 0x69, 0x84, 0xbd, 0xbb, 0x10, 0xb2, 0x3d, 0xd3, 0x03, 0x79, 0xbc,
  0x60, 0x00, 0x8b, 0xbe, 0xb6, 0xca, 0xd0, 0x3b, 0xbe, 0x8f, 0x23, 0xbd,
  0xec, 0x82, 0x61, 0xbe, 0xc7, 0xf8, 0x26, 0x3c, 0x0c, 0xc9, 0xd7, 0xbd,
  0x1e, 0x1e, 0x23, 0x3e, 0x93, 0xe6, 0xe7, 0xbd, 0xe8, 0x67, 0xf0, 0xbd,
  0x92, 0xa1, 0xe7, 0xbd, 0xdb, 0xe4, 0xad, 0xbd, 0x7c, 0x59, 0x46, 0x3b,
  0x3c, 0x4b, 0x67, 0xbe, 0xd0, 0xc9, 0x9b, 0xbe, 0x4d, 0x8a, 0x24, 0xbe,
  0x1b, 0x99, 0x88, 0xbd, 0x0b, 0xab, 0x8d, 0xbe, 0x38, 0xb4, 0x50, 0xbd,
  0xc3, 0x2a, 0x3c, 0xbe, 0xa5, 0xd3, 0x92, 0xbd, 0x93, 0xaf, 0x75, 0xbe,
  0xfb, 0x4b, 0x82, 0xbe, 0x1b, 0xb9, 0x8c, 0xbe, 0x32, 0x99, 0x70, 0xbe,
  0x6e, 0x52, 0xa7, 0xbe, 0xdd, 0x53, 0x04, 0xbf, 0x1a, 0xf2, 0xf5, 0xbe,
  0x00, 0xad, 0x8c, 0xbd, 0x47, 0xc2, 0x04, 0x3e, 0x37, 0xfa, 0x22, 0x3d,
  0xd8, 0x23, 0x2e, 0x3e, 0xa1, 0x46, 0x4b, 0x3d, 0x2a, 0x19, 0xca, 0xbe,
  0xdc, 0x38, 0xca, 0xbe, 0x63, 0xd6, 0x40, 0xbf, 0x1a, 0x5a, 0x8f, 0x3e,
  0xdc, 0xe2, 0xbc, 0xbe, 0x6b, 0xae, 0x2f, 0xbf, 0x7d, 0xb6, 0x0d, 0xbe,
  0x0f, 0x8b, 0x24, 0xbe, 0x7b, 0xde, 0x9c, 0xbe, 0x62, 0xee, 0xba, 0xbe,
  0x68, 0x0b, 0x24, 0xbf, 0x2f, 0xec, 0x27, 0x3e, 0xf2, 0x7a, 0x9d, 0x3d,
  0xd6, 0xb7, 0xb6, 0xbc, 0x4d, 0x2a, 0x07, 0x3e, 0x6f, 0xa3, 0x66, 0x3e,
  0x45, 0xa5, 0xb2, 0xbd, 0x4b, 0x3b, 0xa8, 0xbe, 0xc4, 0x27, 0x65, 0xbf,
  0x7c, 0x75, 0xf9, 0x3d, 0x68, 0x7c, 0xc8, 0xbe, 0x8e, 0x90, 0xf7, 0xbe,
  0x1f, 0x62, 0xb0, 0xbd, 0xf0, 0x39, 0xce, 0xbd, 0x0f, 0x72, 0xc7, 0xbe,
  0x66, 0xff, 0xb6, 0xbe, 0x47, 0x24, 0x23, 0xbf, 0xa9, 0xbb, 0x2e, 0xbe,
  0xff, 0x8a, 0xc6, 0x3d, 0x04, 0xd5, 0x8d, 0x3d, 0xcf, 0x8f, 0x29, 0xbe,
  0x29, 0x0a, 0xd6, 0x3d, 0xd0, 0x71, 0xd9, 0x3e, 0x68, 0xfe, 0x0b, 0x3e,
  0x57, 0xc9, 0x7f, 0x3c, 0x2b, 0x3c, 0x9a, 0xbd, 0x8b, 0x43, 0x79, 0xbe,
  0x49, 0x37, 0x38, 0xbf, 0xa7, 0x7d, 0x89, 0xbe, 0x13, 0xf2, 0x01, 0x3e,
  0x84, 0xd0, 0x63, 0xbe, 0x7c, 0x5e, 0x42, 0xbe, 0x94, 0x4f, 0x19, 0xbe,
  0x54, 0xb7, 0x2a, 0xbe, 0x39, 0xa4, 0x43, 0x3d, 0x2d, 0x6d, 0xa9, 0xbd,
  0x5e, 0xa4, 0x6b, 0x3d, 0xcd, 0xfa, 0x74, 0xbd, 0x83, 0xed, 0x23, 0x3e,
  0x72, 0x98, 0xbc, 0x3d, 0x86, 0xc2, 0xac, 0x3e, 0xa5, 0x68, 0x06, 0x3e,
  0xc6, 0xb6, 0xf2, 0xbd, 0x2e, 0x7b, 0xe5, 0xbe, 0xbb, 0xe4, 0x34, 0xbe,
  0xf9, 0x05, 0xf1, 0xbd, 0xa9, 0x98, 0x8d, 0x3d, 0xdd, 0xa3, 0xac, 0x3e,
  0x62, 0x75, 0xd6, 0x3d, 0xe2, 0xb2, 0x39, 0xbe, 0x15, 0x8e, 0xab, 0xbc,
  0xae, 0x48, 0xce, 0x3d, 0x0c, 0x4d, 0x9f, 0x3c, 0xde, 0x87, 0x22, 0xbc,
  0x5e, 0x78, 0x26, 0x3d, 0x18, 0x6f, 0x40, 0x3d, 0xec, 0xa4, 0x69, 0x3e,
  0x01, 0x6b, 0xea, 0xbd, 0x82, 0x27, 0x6a, 0xbe, 0x47, 0xfd, 0x74, 0xbe,
  0x07, 0x4e, 0xb6, 0xbe, 0x8d, 0xaf, 0xa0, 0xbd, 0x49, 0xc4, 0xbb, 0xbd,
  0xe8, 0x88, 0xa9, 0x3e, 0x93, 0xf2, 0x42, 0x3e, 0xfa, 0xc4, 0x54, 0xbe,
  0xf8, 0x5f, 0xb6, 0xbd, 0x1e, 0xde, 0xe7, 0x3c, 0xa9, 0xaa, 0x73, 0xbe,
  0xa4, 0x69, 0x61, 0xbe, 0xa8, 0xf6, 0x7d, 0xbe, 0x4d, 0x8c, 0x79, 0x3c,
  0xba, 0xc1, 0x94, 0x3e, 0x86, 0xcb, 0x87, 0xbe, 0x80, 0x9b, 0x10, 0x3c,
  0xba, 0x40, 0x44, 0xbe, 0xf1, 0x7e, 0xc1, 0xbd, 0x55, 0x75, 0xa6, 0xbd,
  0x11, 0x00, 0x37, 0x3b, 0xce, 0xab, 0x0a, 0x3e, 0x43, 0xee, 0x15, 0x3e,
  0x92, 0x6f, 0xdc, 0xbd, 0x78, 0x79, 0x5a, 0xbe, 0xe9, 0x1d, 0xd6, 0x3d,
  0xe3, 0x3b, 0xfb, 0xbe, 0xb3, 0x94, 0xca, 0xbd, 0xba, 0xb4, 0x2f, 0xbe,
  0x6f, 0xb6, 0xbc, 0x3c, 0x61, 0x15, 0xd0, 0xbd, 0x63, 0x12, 0xad, 0xbe,
  0xab, 0x9e, 0x30, 0xbe, 0xda, 0x33, 0x37, 0xbd, 0x0d, 0x1a, 0x01, 0x3e,
  0xd4, 0x1a, 0x8d, 0x3d, 0xd7, 0x71, 0x39, 0x3e, 0xf2, 0x04, 0x0a, 0xbe,
  0x86, 0x49, 0x4c, 0x3e, 0xc0, 0x5b, 0x95, 0x3e, 0x84, 0xa1, 0xa0, 0xbe,
  0xa6, 0x8b, 0x62, 0xbe, 0x56, 0x4a, 0x9a, 0xbd, 0xb5, 0x34, 0x62, 0xbd,
  0xe7, 0x7e, 0xfc, 0x3e, 0x48, 0xa7, 0xb6, 0xbd, 0x4a, 0xd2, 0xa3, 0xbe,
  0x0e, 0x56, 0x10, 0xbf, 0x50, 0x1b, 0xc9, 0x3d, 0x6a, 0x45, 0xc6, 0xbe,
  0xe9, 0x78, 0xbe, 0x3c, 0x44, 0x18, 0xf4, 0x3d, 0xc6, 0xdf, 0xa2, 0xbb,
  0x06, 0x01, 0x0d, 0xbf, 0x81, 0x61, 0x83, 0x3d, 0x91, 0xa8, 0x7a, 0x3e,
  0x83, 0x2c, 0x0e, 0xbf, 0xa4, 0xf5, 0xb4, 0xbe, 0xf0, 0x91, 0xd9, 0xbe,
  0xac, 0xb4, 0x35, 0x3e, 0xc6, 0xf4, 0xe1, 0x3e, 0x35, 0x6f, 0x61, 0xbe,
  0x74, 0x4b, 0x27, 0x3e, 0x40, 0xb7, 0xf7, 0x3d, 0x60, 0xef, 0x74, 0xbe,
  0x7e, 0xf2, 0xd5, 0xbe, 0x1b, 0x83, 0x67, 0x3e, 0xa4, 0xe6, 0x15, 0x3e,
  0x0d, 0x9c, 0xa6, 0x3d, 0x23, 0xe9, 0xb6, 0xbe, 0x31, 0xfd, 0x03, 0x3d,
  0xf7, 0x39, 0xf3, 0x3e, 0x22, 0x9e, 0xae, 0xbe, 0xd4, 0x61, 0xf7, 0xbd,
  0x36, 0x12, 0x86, 0xbe, 0xd8, 0xb4, 0x9b, 0x3d, 0xa2, 0xf3, 0xa8, 0x3e,
  0x1a, 0xf0, 0x26, 0xbd, 0xa5, 0x73, 0x14, 0x3e, 0x25, 0xc7, 0x57, 0xbd,
  0x2d, 0x55, 0x57, 0xbc, 0x7d, 0x7c, 0xb2, 0xbe, 0x0a, 0xb7, 0x2f, 0x3e,
  0xfa, 0xdf, 0x74, 0x3e, 0x91, 0xb9, 0x42, 0x3e, 0x5a, 0xb0, 0x28, 0xbe,
  0x23, 0x45, 0x19, 0x3e, 0x4d, 0xdb, 0x82, 0x3e, 0x9c, 0x7d, 0xfe, 0xbe,
  0x07, 0xea, 0x20, 0xbe, 0xad, 0x0c, 0x94, 0x3d, 0x2c, 0xf1, 0x3e, 0x3e,
  0x55, 0x81, 0xf1, 0xbc, 0x34, 0x54, 0x6c, 0x3c, 0xb6, 0xa3, 0x66, 0x3d,
  0x6d, 0x08, 0xc3, 0xbe, 0x88, 0xdd, 0x12, 0xbe, 0xf0, 0x9b, 0x06, 0xbf,
  0x35, 0xac, 0x3a, 0x3e, 0x69, 0x4c, 0xae, 0x3d, 0xca, 0x68, 0x18, 0x3d,
  0x6c, 0x0c, 0x11, 0xbe, 0x5c, 0x37, 0x0b, 0x3e, 0x2b, 0x76, 0xc5, 0x3e,
  0xd2, 0x95, 0xcb, 0xbe, 0x09, 0x86, 0x5b, 0xbe, 0x07, 0x76, 0x99, 0x3d,
  0x77, 0x6d, 0xc3, 0x3d, 0x19, 0x63, 0x16, 0xbe, 0x2a, 0x6b, 0x7a, 0xbd,
  0x7c, 0x3a, 0x5c, 0x3c, 0x14, 0x3b, 0xcc, 0xbe, 0x6f, 0x20, 0x64, 0xbd,
  0xeb, 0xf3, 0x2a, 0xbf, 0xb4, 0x9f, 0x4a, 0x3e, 0x7c, 0xee, 0x1d, 0x3e,
  0x01, 0xf0, 0x11, 0x3d, 0x47, 0xae, 0x51, 0xbe, 0x51, 0xd3, 0x8f, 0x3e,
  0x3a, 0x85, 0x1d, 0x3f, 0x81, 0xf0, 0xd3, 0xbe, 0x18, 0xde, 0x05, 0xbe,
  0x55, 0x57, 0xa9, 0x3e, 0x49, 0x7c, 0xb7, 0x3d, 0x83, 0x07, 0x57, 0xbd,
  0x89, 0x35, 0x55, 0xba, 0x9a, 0x65, 0xf7, 0xbd, 0xaa, 0x98, 0xa5, 0x3c,
  0xca, 0x03, 0x17, 0xbe, 0x3b, 0x18, 0xf1, 0xbd, 0x90, 0xba, 0x01, 0x3e,
  0xc1, 0xde, 0x24, 0x3c, 0xf5, 0x8e, 0xa5, 0xbd, 0x2a, 0xef, 0x82, 0xbe,
  0xae, 0x6c, 0x0c, 0x3d, 0x09, 0x9d, 0xb5, 0x3e, 0x70, 0xb9, 0x59, 0xbd,
  0xe1, 0x16, 0x1d, 0xbe, 0x6c, 0xaa, 0xa5, 0x3d, 0x49, 0xb1, 0x53, 0xbd,
  0x46, 0xfe, 0xff, 0xff, 0x10, 0x00, 0x00, 0x00, 0x05, 0x00, 0x00, 0x00,
  0x14, 0x00, 0x00, 0x00, 0x2c, 0x00, 0x00, 0x00, 0x02, 0x00, 0x00, 0x00,
  0x10, 0x00, 0x00, 0x00, 0x70, 0x00, 0x00, 0x00, 0x17, 0x00, 0x00, 0x00,
  0x73, 0x65, 0x71, 0x75, 0x65, 0x6e, 0x74, 0x69, 0x61, 0x6c, 0x2f, 0x64,
  0x65, 0x6e, 0x73, 0x65, 0x2f, 0x4d, 0x61, 0x74, 0x4d, 0x75, 0x6c, 0x00,
  0x34, 0xfe, 0xff, 0xff, 0x2a, 0xff, 0xff, 0xff, 0x04, 0x00, 0x00, 0x00,
  0x08, 0x00, 0x00, 0x00, 0xff, 0xff, 0xff, 0xff, 0x70, 0x00, 0x00, 0x00,
  0x00, 0x00, 0x0e, 0x00, 0x18, 0x00, 0x08, 0x00, 0x07, 0x00, 0x0c, 0x00,
  0x10, 0x00, 0x14, 0x00, 0x0e, 0x00, 0x00, 0x00, 0x00, 0x00, 0x00, 0x02,
  0x10, 0x00, 0x00, 0x00, 0x04, 0x00, 0x00, 0x00, 0x10, 0x00, 0x00, 0x00,
  0x2c, 0x00, 0x00, 0x00, 0x01, 0x00, 0x00, 0x00, 0x02, 0x00, 0x00, 0x00,
  0x18, 0x00, 0x00, 0x00, 0x73, 0x65, 0x71, 0x75, 0x65, 0x6e, 0x74, 0x69,
  0x61, 0x6c, 0x2f, 0x66, 0x6c, 0x61, 0x74, 0x74, 0x65, 0x6e, 0x2f, 0x43,
  0x6f, 0x6e, 0x73, 0x74, 0x00, 0x00, 0x00, 0x00, 0x9c, 0xfe, 0xff, 0xff,
  0x92, 0xff, 0xff, 0xff, 0x04, 0x00, 0x00, 0x00, 0x10, 0x00, 0x00, 0x00,
  0x50, 0xe8, 0x0f, 0xbf, 0x9f, 0xc3, 0x75, 0xc0, 0xf8, 0x18, 0x93, 0xbf,
  0x88, 0x28, 0x56, 0x40, 0x0a, 0xff, 0xff, 0xff, 0x10, 0x00, 0x00, 0x00,
  0x03, 0x00, 0x00, 0x00, 0x10, 0x00, 0x00, 0x00, 0x3c, 0x00, 0x00, 0x00,
  0x01, 0x00, 0x00, 0x00, 0x04, 0x00, 0x00, 0x00, 0x29, 0x00, 0x00, 0x00,
  0x73, 0x65, 0x71, 0x75, 0x65, 0x6e, 0x74, 0x69, 0x61, 0x6c, 0x2f, 0x64,
  0x65, 0x6e, 0x73, 0x65, 0x5f, 0x31, 0x2f, 0x42, 0x69, 0x61, 0x73, 0x41,
  0x64, 0x64, 0x2f, 0x52, 0x65, 0x61, 0x64, 0x56, 0x61, 0x72, 0x69, 0x61,
  0x62, 0x6c, 0x65, 0x4f, 0x70, 0x00, 0x00, 0x00, 0x60, 0xff, 0xff, 0xff,
  0x00, 0x00, 0x06, 0x00, 0x08, 0x00, 0x04, 0x00, 0x06, 0x00, 0x00, 0x00,
  0x04, 0x00, 0x00, 0x00, 0x40, 0x00, 0x00, 0x00, 0x05, 0xe2, 0x99, 0x3f,
  0xa4, 0x81, 0x0b, 0xbf, 0x1c, 0xb4, 0x19, 0xbf, 0x7d, 0x40, 0xa6, 0xbe,
  0xf9, 0x83, 0xce, 0xbf, 0x55, 0x4b, 0xa8, 0x3f, 0x70, 0xf9, 0x02, 0x40,
  0xe3, 0x12, 0xd2, 0xbe, 0x8c, 0x10, 0xe7, 0xbe, 0x46, 0xfa, 0x00, 0x3f,
  0xa3, 0x80, 0xd7, 0x3f, 0x08, 0xb4, 0xaf, 0xbf, 0x68, 0xf9, 0x00, 0x40,
  0x01, 0xcd, 0x3e, 0xbe, 0xbb, 0x98, 0x0f, 0x3f, 0x30, 0x51, 0xb8, 0xbf,
  0xae, 0xff, 0xff, 0xff, 0x10, 0x00, 0x00, 0x00, 0x02, 0x00, 0x00, 0x00,
  0x10, 0x00, 0x00, 0x00, 0x3c, 0x00, 0x00, 0x00, 0x01, 0x00, 0x00, 0x00,
  0x10, 0x00, 0x00, 0x00, 0x27, 0x00, 0x00, 0x00, 0x73, 0x65, 0x71, 0x75,
  0x65, 0x6e, 0x74, 0x69, 0x61, 0x6c, 0x2f, 0x64, 0x65, 0x6e, 0x73, 0x65,
  0x2f, 0x42, 0x69, 0x61, 0x73, 0x41, 0x64, 0x64, 0x2f, 0x52, 0x65, 0x61,
  0x64, 0x56, 0x61, 0x72, 0x69, 0x61, 0x62, 0x6c, 0x65, 0x4f, 0x70, 0x00,
  0x04, 0x00, 0x06, 0x00, 0x04, 0x00, 0x00, 0x00, 0x00, 0x00, 0x0e, 0x00,
  0x14, 0x00, 0x04, 0x00, 0x00, 0x00, 0x08, 0x00, 0x0c, 0x00, 0x10, 0x00,
  0x0e, 0x00, 0x00, 0x00, 0x10, 0x00, 0x00, 0x00, 0x01, 0x00, 0x00, 0x00,
  0x1c, 0x00, 0x00, 0x00, 0x2c, 0x00, 0x00, 0x00, 0x04, 0x00, 0x00, 0x00,
  0x01, 0x00, 0x00, 0x00, 0x40, 0x00, 0x00, 0x00, 0x03, 0x00, 0x00, 0x00,
  0x01, 0x00, 0x00, 0x00, 0x0c, 0x00, 0x00, 0x00, 0x63, 0x6f, 0x6e, 0x76,
  0x32, 0x64, 0x5f, 0x69, 0x6e, 0x70, 0x75, 0x74, 0x00, 0x00, 0x00, 0x00,
  0xfc, 0xff, 0xff, 0xff, 0x04, 0x00, 0x04, 0x00, 0x04, 0x00, 0x00, 0x00

};


unsigned int model_tflite_len = 12384;// Fill the int in `src/model.cc` here