#include "magic_wand_model_data.h"


// We need to keep the data array aligned on some architectures.

#ifdef __has_attribute

#define HAVE_ATTRIBUTE(x) __has_attribute(x)

#else

#define HAVE_ATTRIBUTE(x) 0

#endif

#if HAVE_ATTRIBUTE(aligned) || (defined(__GNUC__) && !defined(__clang__))

#define DATA_ALIGN_ATTRIBUTE __attribute__((aligned(4)))

#else

#define DATA_ALIGN_ATTRIBUTE

#endif


const unsigned char g_magic_wand_model_data[] DATA_ALIGN_ATTRIBUTE = {
  0x08, 0x00, 0x00, 0x00, 0x54, 0x46, 0x4c, 0x33, 0x62, 0xff, 0xff, 0xff,
  0x03, 0x00, 0x00, 0x00, 0x10, 0x00, 0x00, 0x00, 0x24, 0x00, 0x00, 0x00,
  0x78, 0x00, 0x00, 0x00, 0x24, 0x00, 0x00, 0x00, 0x05, 0x00, 0x00, 0x00,
  0x78, 0x05, 0x00, 0x00, 0xb0, 0x04, 0x00, 0x00, 0xe0, 0x02, 0x00, 0x00,
  0x60, 0x02, 0x00, 0x00, 0x54, 0x01, 0x00, 0x00, 0x01, 0x00, 0x00, 0x00,
  0x78, 0x00, 0x00, 0x00, 0x13, 0x00, 0x00, 0x00, 0xd4, 0x2f, 0x00, 0x00,
  0xd0, 0x2f, 0x00, 0x00, 0xdc, 0x2e, 0x00, 0x00, 0x68, 0x2e, 0x00, 0x00,
  0xfc, 0x2d, 0x00, 0x00, 0xac, 0x11, 0x00, 0x00, 0x98, 0x10, 0x00, 0x00,
  0xbc, 0x0e, 0x00, 0x00, 0x60, 0x06, 0x00, 0x00, 0xfc, 0x05, 0x00, 0x00,
  0x78, 0x05, 0x00, 0x00, 0xa8, 0x2f, 0x00, 0x00, 0xa4, 0x2f, 0x00, 0x00,
  0xa0, 0x2f, 0x00, 0x00, 0x9c, 0x2f, 0x00, 0x00, 0x98, 0x2f, 0x00, 0x00,
  0x94, 0x2f, 0x00, 0x00, 0x90, 0x2f, 0x00, 0x00, 0x8c, 0x2f, 0x00, 0x00,
  0x0f, 0x00, 0x00, 0x00, 0x4d, 0x4c, 0x49, 0x52, 0x20, 0x43, 0x6f, 0x6e,
  0x76, 0x65, 0x72, 0x74, 0x65, 0x64, 0x2e, 0x00, 0x00, 0x00, 0x0e, 0x00,
  0x18, 0x00, 0x04, 0x00, 0x08, 0x00, 0x0c, 0x00, 0x10, 0x00, 0x14, 0x00,
  0x0e, 0x00, 0x00, 0x00, 0x14, 0x00, 0x00, 0x00, 0x5c, 0x00, 0x00, 0x00,
  0x60, 0x00, 0x00, 0x00, 0x64, 0x00, 0x00, 0x00, 0x84, 0x00, 0x00, 0x00,
  0x12, 0x00, 0x00, 0x00, 0x04, 0x2f, 0x00, 0x00, 0xa0, 0x2e, 0x00, 0x00,
  0xf8, 0x2d, 0x00, 0x00, 0x98, 0x2d, 0x00, 0x00, 0x30, 0x2d, 0x00, 0x00,
  0xdc, 0x10, 0x00, 0x00, 0xc0, 0x0f, 0x00, 0x00, 0xe4, 0x0d, 0x00, 0x00,
  0xa0, 0x05, 0x00, 0x00, 0x3c, 0x05, 0x00, 0x00, 0xb0, 0x04, 0x00, 0x00,
  0xe8, 0x03, 0x00, 0x00, 0x38, 0x03, 0x00, 0x00, 0xa4, 0x02, 0x00, 0x00,
  0x10, 0x02, 0x00, 0x00, 0x90, 0x01, 0x00, 0x00, 0xfc, 0x00, 0x00, 0x00,
  0x80, 0x00, 0x00, 0x00, 0x01, 0x00, 0x00, 0x00, 0x00, 0x00, 0x00, 0x00,
  0x01, 0x00, 0x00, 0x00, 0x11, 0x00, 0x00, 0x00, 0x08, 0x00, 0x00, 0x00,
  0x1c, 0x04, 0x00, 0x00, 0x58, 0x03, 0x00, 0x00, 0xc8, 0x02, 0x00, 0x00,
  0x24, 0x02, 0x00, 0x00, 0xac, 0x01, 0x00, 0x00, 0x10, 0x01, 0x00, 0x00,
  0x94, 0x00, 0x00, 0x00, 0x10, 0x00, 0x00, 0x00, 0x04, 0x00, 0x00, 0x00,
  0x6d, 0x61, 0x69, 0x6e, 0x00, 0x00, 0x00, 0x00, 0x8e, 0xff, 0xff, 0xff,
  0x00, 0x00, 0x00, 0x09, 0x04, 0x00, 0x00, 0x00, 0x1c, 0x00, 0x00, 0x00,
  0x10, 0x00, 0x00, 0x00, 0x04, 0x00, 0x00, 0x00, 0x4e, 0xd2, 0xff, 0xff,
  0x00, 0x00, 0x80, 0x3f, 0x01, 0x00, 0x00, 0x00, 0x11, 0x00, 0x00, 0x00,
  0x01, 0x00, 0x00, 0x00, 0x10, 0x00, 0x00, 0x00, 0xf6, 0xfb, 0xff, 0xff,
  0x00, 0x00, 0x00, 0x19, 0x01, 0x00, 0x00, 0x00, 0xce, 0xd1, 0xff, 0xff,
  0x10, 0x00, 0x00, 0x00, 0x12, 0x00, 0x00, 0x00, 0x14, 0x00, 0x00, 0x00,
  0x20, 0x00, 0x00, 0x00, 0x02, 0x00, 0x00, 0x00, 0x01, 0x00, 0x00, 0x00,
  0x03, 0x00, 0x00, 0x00, 0x08, 0x00, 0x00, 0x00, 0x49, 0x64, 0x65, 0x6e,
  0x74, 0x69, 0x74, 0x79, 0x00, 0x00, 0x00, 0x00, 0x08, 0xd2, 0xff, 0xff,
  0x00, 0x00, 0x0e, 0x00, 0x18, 0x00, 0x08, 0x00, 0x0c, 0x00, 0x10, 0x00,
  0x07, 0x00, 0x14, 0x00, 0x0e, 0x00, 0x00, 0x00, 0x00, 0x00, 0x00, 0x08,
  0x03, 0x00, 0x00, 0x00, 0x18, 0x00, 0x00, 0x00, 0x0c, 0x00, 0x00, 0x00,
  0x04, 0x00, 0x00, 0x00, 0xdc, 0xd1, 0xff, 0xff, 0x01, 0x00, 0x00, 0x00,
  0x10, 0x00, 0x00, 0x00, 0x03, 0x00, 0x00, 0x00, 0x0f, 0x00, 0x00, 0x00,
  0x05, 0x00, 0x00, 0x00, 0x02, 0x00, 0x00, 0x00, 0x46, 0xd2, 0xff, 0xff,
  0x10, 0x00, 0x00, 0x00, 0x11, 0x00, 0x00, 0x00, 0x14, 0x00, 0x00, 0x00,
  0x30, 0x00, 0x00, 0x00, 0x02, 0x00, 0x00, 0x00, 0x01, 0x00, 0x00, 0x00,
  0x03, 0x00, 0x00, 0x00, 0x1a, 0x00, 0x00, 0x00, 0x73, 0x65, 0x71, 0x75,
  0x65, 0x6e, 0x74, 0x69, 0x61, 0x6c, 0x2f, 0x64, 0x65, 0x6e, 0x73, 0x65,
  0x5f, 0x31, 0x2f, 0x42, 0x69, 0x61, 0x73, 0x41, 0x64, 0x64, 0x00, 0x00,
  0x38, 0xd2, 0xff, 0xff, 0xd6, 0xfd, 0xff, 0xff, 0x00, 0x00, 0x00, 0x08,
  0x03, 0x00, 0x00, 0x00, 0x24, 0x00, 0x00, 0x00, 0x18, 0x00, 0x00, 0x00,
  0x0c, 0x00, 0x00, 0x00, 0x00, 0x00, 0x06, 0x00, 0x08, 0x00, 0x07, 0x00,
  0x06, 0x00, 0x00, 0x00, 0x00, 0x00, 0x00, 0x01, 0x01, 0x00, 0x00, 0x00,
  0x0f, 0x00, 0x00, 0x00, 0x03, 0x00, 0x00, 0x00, 0x0e, 0x00, 0x00, 0x00,
  0x04, 0x00, 0x00, 0x00, 0x01, 0x00, 0x00, 0x00, 0xfe, 0xfc, 0xff, 0xff,
  0x00, 0x00, 0x00, 0x09, 0x01, 0x00, 0x00, 0x00, 0xd6, 0xd2, 0xff, 0xff,
  0x10, 0x00, 0x00, 0x00, 0x10, 0x00, 0x00, 0x00, 0x14, 0x00, 0x00, 0x00,
  0x2c, 0x00, 0x00, 0x00, 0x02, 0x00, 0x00, 0x00, 0x01, 0x00, 0x00, 0x00,
  0x10, 0x00, 0x00, 0x00, 0x15, 0x00, 0x00, 0x00, 0x73, 0x65, 0x71, 0x75,
  0x65, 0x6e, 0x74, 0x69, 0x61, 0x6c, 0x2f, 0x64, 0x65, 0x6e, 0x73, 0x65,
  0x2f, 0x52, 0x65, 0x6c, 0x75, 0x00, 0x00, 0x00, 0x1c, 0xd3, 0xff, 0xff,
  0x00, 0x00, 0x0a, 0x00, 0x10, 0x00, 0x04, 0x00, 0x08, 0x00, 0x0c, 0x00,
  0x0a, 0x00, 0x00, 0x00, 0x02, 0x00, 0x00, 0x00, 0x10, 0x00, 0x00, 0x00,
  0x04, 0x00, 0x00, 0x00, 0x01, 0x00, 0x00, 0x00, 0x0e, 0x00, 0x00, 0x00,
  0x02, 0x00, 0x00, 0x00, 0x0d, 0x00, 0x00, 0x00, 0x03, 0x00, 0x00, 0x00,
  0x7a, 0xfd, 0xff, 0xff, 0x00, 0x00, 0x00, 0x16, 0x01, 0x00, 0x00, 0x00,
  0x52, 0xd3, 0xff, 0xff, 0x10, 0x00, 0x00, 0x00, 0x0f, 0x00, 0x00, 0x00,
  0x14, 0x00, 0x00, 0x00, 0x30, 0x00, 0x00, 0x00, 0x02, 0x00, 0x00, 0x00,
  0x01, 0x00, 0x00, 0x00, 0x70, 0x00, 0x00, 0x00, 0x1a, 0x00, 0x00, 0x00,
  0x73, 0x65, 0x71, 0x75, 0x65, 0x6e, 0x74, 0x69, 0x61, 0x6c, 0x2f, 0x66,
  0x6c, 0x61, 0x74, 0x74, 0x65, 0x6e, 0x2f, 0x52, 0x65, 0x73, 0x68, 0x61,
  0x70, 0x65, 0x00, 0x00, 0x44, 0xd3, 0xff, 0xff, 0xe2, 0xfe, 0xff, 0xff,
  0x00, 0x00, 0x00, 0x05, 0x01, 0x00, 0x00, 0x00, 0x38, 0x00, 0x00, 0x00,
  0x2c, 0x00, 0x00, 0x00, 0x14, 0x00, 0x00, 0x00, 0x00, 0x00, 0x0e, 0x00,
  0x14, 0x00, 0x00, 0x00, 0x10, 0x00, 0x0c, 0x00, 0x08, 0x00, 0x04, 0x00,
  0x0e, 0x00, 0x00, 0x00, 0x03, 0x00, 0x00, 0x00, 0x01, 0x00, 0x00, 0x00,
  0x03, 0x00, 0x00, 0x00, 0x01, 0x00, 0x00, 0x00, 0x01, 0x00, 0x00, 0x00,
  0x0d, 0x00, 0x00, 0x00, 0x01, 0x00, 0x00, 0x00, 0x0c, 0x00, 0x00, 0x00,
  0xe2, 0xd3, 0xff, 0xff, 0x10, 0x00, 0x00, 0x00, 0x0e, 0x00, 0x00, 0x00,
  0x1c, 0x00, 0x00, 0x00, 0x40, 0x00, 0x00, 0x00, 0x04, 0x00, 0x00, 0x00,
  0x01, 0x00, 0x00, 0x00, 0x07, 0x00, 0x00, 0x00, 0x01, 0x00, 0x00, 0x00,
  0x10, 0x00, 0x00, 0x00, 0x22, 0x00, 0x00, 0x00, 0x73, 0x65, 0x71, 0x75,
  0x65, 0x6e, 0x74, 0x69, 0x61, 0x6c, 0x2f, 0x6d, 0x61, 0x78, 0x5f, 0x70,
  0x6f, 0x6f, 0x6c, 0x69, 0x6e, 0x67, 0x32, 0x64, 0x5f, 0x31, 0x2f, 0x4d,
  0x61, 0x78, 0x50, 0x6f, 0x6f, 0x6c, 0x00, 0x00, 0xe4, 0xd3, 0xff, 0xff,
  0xc2, 0xfe, 0xff, 0xff, 0x00, 0x00, 0x00, 0x01, 0x24, 0x00, 0x00, 0x00,
  0x18, 0x00, 0x00, 0x00, 0x04, 0x00, 0x00, 0x00, 0xb4, 0xfe, 0xff, 0xff,
  0x01, 0x00, 0x00, 0x00, 0x01, 0x00, 0x00, 0x00, 0x00, 0x00, 0x00, 0x01,
  0x01, 0x00, 0x00, 0x00, 0x0c, 0x00, 0x00, 0x00, 0x03, 0x00, 0x00, 0x00,
  0x0b, 0x00, 0x00, 0x00, 0x07, 0x00, 0x00, 0x00, 0x09, 0x00, 0x00, 0x00,
  0x72, 0xd4, 0xff, 0xff, 0x10, 0x00, 0x00, 0x00, 0x0d, 0x00, 0x00, 0x00,
  0x1c, 0x00, 0x00, 0x00, 0x2c, 0x00, 0x00, 0x00, 0x04, 0x00, 0x00, 0x00,
  0x01, 0x00, 0x00, 0x00, 0x15, 0x00, 0x00, 0x00, 0x01, 0x00, 0x00, 0x00,
  0x10, 0x00, 0x00, 0x00, 0x0c, 0x00, 0x00, 0x00, 0x74, 0x66, 0x6c, 0x2e,
  0x63, 0x6f, 0x6e, 0x76, 0x5f, 0x32, 0x64, 0x31, 0x00, 0x00, 0x00, 0x00,
  0xb8, 0xd4, 0xff, 0xff, 0x00, 0x00, 0x0e, 0x00, 0x1a, 0x00, 0x08, 0x00,
  0x0c, 0x00, 0x10, 0x00, 0x07, 0x00, 0x14, 0x00, 0x0e, 0x00, 0x00, 0x00,
  0x00, 0x00, 0x00, 0x05, 0x01, 0x00, 0x00, 0x00, 0x3c, 0x00, 0x00, 0x00,
  0x30, 0x00, 0x00, 0x00, 0x14, 0x00, 0x00, 0x00, 0x00, 0x00, 0x0e, 0x00,
  0x18, 0x00, 0x17, 0x00, 0x10, 0x00, 0x0c, 0x00, 0x08, 0x00, 0x04, 0x00,
  0x0e, 0x00, 0x00, 0x00, 0x03, 0x00, 0x00, 0x00, 0x03, 0x00, 0x00, 0x00,
  0x03, 0x00, 0x00, 0x00, 0x03, 0x00, 0x00, 0x00, 0x00, 0x00, 0x00, 0x01,
  0x01, 0x00, 0x00, 0x00, 0x0b, 0x00, 0x00, 0x00, 0x01, 0x00, 0x00, 0x00,
  0x0a, 0x00, 0x00, 0x00, 0x46, 0xff, 0xff, 0xff, 0x00, 0x00, 0x00, 0x11,
  0x01, 0x00, 0x00, 0x00, 0x1e, 0xd5, 0xff, 0xff, 0x10, 0x00, 0x00, 0x00,
  0x0c, 0x00, 0x00, 0x00, 0x1c, 0x00, 0x00, 0x00, 0x40, 0x00, 0x00, 0x00,
  0x04, 0x00, 0x00, 0x00, 0x01, 0x00, 0x00, 0x00, 0x15, 0x00, 0x00, 0x00,
  0x01, 0x00, 0x00, 0x00, 0x08, 0x00, 0x00, 0x00, 0x20, 0x00, 0x00, 0x00,
  0x73, 0x65, 0x71, 0x75, 0x65, 0x6e, 0x74, 0x69, 0x61, 0x6c, 0x2f, 0x6d,
  0x61, 0x78, 0x5f, 0x70, 0x6f, 0x6f, 0x6c, 0x69, 0x6e, 0x67, 0x32, 0x64,
  0x2f, 0x4d, 0x61, 0x78, 0x50, 0x6f, 0x6f, 0x6c, 0x00, 0x00, 0x00, 0x00,
  0x78, 0xd5, 0xff, 0xff, 0x00, 0x00, 0x0e, 0x00, 0x14, 0x00, 0x00, 0x00,
  0x08, 0x00, 0x0c, 0x00, 0x07, 0x00, 0x10, 0x00, 0x0e, 0x00, 0x00, 0x00,
  0x00, 0x00, 0x00, 0x01, 0x30, 0x00, 0x00, 0x00, 0x24, 0x00, 0x00, 0x00,
  0x10, 0x00, 0x00, 0x00, 0x0c, 0x00, 0x10, 0x00, 0x00, 0x00, 0x04, 0x00,
  0x08, 0x00, 0x0f, 0x00, 0x0c, 0x00, 0x00, 0x00, 0x01, 0x00, 0x00, 0x00,
  0x01, 0x00, 0x00, 0x00, 0x00, 0x00, 0x00, 0x01, 0x01, 0x00, 0x00, 0x00,
  0x0a, 0x00, 0x00, 0x00, 0x03, 0x00, 0x00, 0x00, 0x00, 0x00, 0x00, 0x00,
  0x06, 0x00, 0x00, 0x00, 0x08, 0x00, 0x00, 0x00, 0x00, 0x00, 0x0a, 0x00,
  0x0c, 0x00, 0x07, 0x00, 0x00, 0x00, 0x08, 0x00, 0x0a, 0x00, 0x00, 0x00,
  0x00, 0x00, 0x00, 0x03, 0x01, 0x00, 0x00, 0x00, 0xe2, 0xd5, 0xff, 0xff,
  0x10, 0x00, 0x00, 0x00, 0x0b, 0x00, 0x00, 0x00, 0x1c, 0x00, 0x00, 0x00,
  0x28, 0x00, 0x00, 0x00, 0x04, 0x00, 0x00, 0x00, 0x01, 0x00, 0x00, 0x00,
  0x40, 0x00, 0x00, 0x00, 0x03, 0x00, 0x00, 0x00, 0x08, 0x00, 0x00, 0x00,
  0x0b, 0x00, 0x00, 0x00, 0x74, 0x66, 0x6c, 0x2e, 0x63, 0x6f, 0x6e, 0x76,
  0x5f, 0x32, 0x64, 0x00, 0xcc, 0xd5, 0xff, 0xff, 0xc2, 0xd6, 0xff, 0xff,
  0x04, 0x00, 0x00, 0x00, 0x40, 0x00, 0x00, 0x00, 0xe1, 0x13, 0x08, 0xbe,
  0xba, 0x25, 0x4a, 0xbf, 0xe0, 0xb8, 0x18, 0x3f, 0xda, 0xdc, 0x9f, 0xbc,
  0x38, 0x56, 0xd3, 0xbf, 0x32, 0xf3, 0x98, 0x3f, 0x2e, 0x80, 0x5e, 0x3f,
  0xb3, 0x0e, 0x10, 0x3e, 0xe5, 0x7d, 0x85, 0x3f, 0xc6, 0xd8, 0x95, 0xbf,
  0xc6, 0x8b, 0xc7, 0x3f, 0x6a, 0x64, 0x4c, 0x40, 0x04, 0x0c, 0xae, 0xbf,
  0x3e, 0xc9, 0x08, 0xc0, 0x50, 0x56, 0xd4, 0xbf, 0x5b, 0x72, 0x8c, 0xbf,
  0x6a, 0xd6, 0xff, 0xff, 0x10, 0x00, 0x00, 0x00, 0x0a, 0x00, 0x00, 0x00,
  0x10, 0x00, 0x00, 0x00, 0x20, 0x00, 0x00, 0x00, 0x01, 0x00, 0x00, 0x00,
  0x10, 0x00, 0x00, 0x00, 0x0d, 0x00, 0x00, 0x00, 0x73, 0x74, 0x64, 0x2e,
  0x63, 0x6f, 0x6e, 0x73, 0x74, 0x61, 0x6e, 0x74, 0x31, 0x00, 0x00, 0x00,
  0x4c, 0xd6, 0xff, 0xff, 0x42, 0xd7, 0xff, 0xff, 0x04, 0x00, 0x00, 0x00,
  0x20, 0x00, 0x00, 0x00, 0x81, 0xb1, 0xae, 0xbe, 0xe4, 0x34, 0xf6, 0xbf,
  0x95, 0xf0, 0xf1, 0xbe, 0x61, 0x10, 0x3d, 0xc0, 0x52, 0x2f, 0xda, 0xbf,
  0xd4, 0xaa, 0x36, 0xbf, 0x7c, 0x7c, 0x90, 0xbf, 0x5a, 0xc1, 0x3a, 0xc0,
  0xca, 0xd6, 0xff, 0xff, 0x10, 0x00, 0x00, 0x00, 0x09, 0x00, 0x00, 0x00,
  0x10, 0x00, 0x00, 0x00, 0x20, 0x00, 0x00, 0x00, 0x01, 0x00, 0x00, 0x00,
  0x08, 0x00, 0x00, 0x00, 0x0c, 0x00, 0x00, 0x00, 0x73, 0x74, 0x64, 0x2e,
  0x63, 0x6f, 0x6e, 0x73, 0x74, 0x61, 0x6e, 0x74, 0x00, 0x00, 0x00, 0x00,
  0xac, 0xd6, 0xff, 0xff, 0xa2, 0xd7, 0xff, 0xff, 0x04, 0x00, 0x00, 0x00,
  0x00, 0x08, 0x00, 0x00, 0xd2, 0xc7, 0xb3, 0xbd, 0xbf, 0x2f, 0x4d, 0xbe,
  0xa2, 0x59, 0xc7, 0x3d, 0xf0, 0x11, 0xc6, 0x3e, 0x9c, 0x22, 0xcd, 0xbc,
  0x72, 0x03, 0x88, 0xbe, 0xf8, 0x89, 0xed, 0x3d, 0xf2, 0x97, 0xc3, 0xbb,
  0x8e, 0xb2, 0xcd, 0xbd, 0x92, 0x2c, 0x35, 0xbd, 0x3f, 0x05, 0x64, 0x3f,
  0xb8, 0xd4, 0xf1, 0xbd, 0x83, 0xed, 0x97, 0xbd, 0xed, 0x89, 0x84, 0xbe,
  0xfc, 0xf9, 0xee, 0xbd, 0x7b, 0x76, 0x27, 0x3b, 0xb6, 0x86, 0xc0, 0x3c,
  0xf9, 0x92, 0xd8, 0xbd, 0xae, 0xbe, 0xd2, 0xbc, 0x04, 0xb9, 0x82, 0xbc,
  0x7e, 0x98, 0x9e, 0xbd, 0x8e, 0xfd, 0x73, 0xbe, 0x46, 0x87, 0xbf, 0x3d,
  0x00, 0x09, 0x18, 0xbe, 0xef, 0xe6, 0xb1, 0x3d, 0x7a, 0x33, 0xed, 0xbd,
  0x60, 0x5d, 0x19, 0x3d, 0x20, 0x6a, 0xc0, 0x3e, 0xaa, 0x22, 0xa1, 0x3d,
  0x09, 0xa5, 0x89, 0xbe, 0x27, 0x95, 0xbe, 0x3d, 0x14, 0x45, 0xa5, 0xbd,
  0x0f, 0xf5, 0xbe, 0xbe, 0x4f, 0x62, 0x7d, 0x3d, 0x81, 0xcc, 0xf0, 0x3e,
  0xd6, 0x9a, 0x0e, 0x3f, 0x63, 0x47, 0xee, 0x3e, 0x81, 0x7f, 0x3c, 0x3c,
  0xab, 0xa7, 0xea, 0x3c, 0x77, 0x79, 0x3b, 0x3e, 0x53, 0x75, 0x9c, 0xbe,
  0x25, 0xb5, 0xd1, 0xbd, 0x67, 0xf1, 0x92, 0xbd, 0x4f, 0xfe, 0x1c, 0xbd,
  0xd5, 0x83, 0x33, 0xbe, 0xf2, 0xa2, 0xa2, 0xbd, 0x8c, 0xbf, 0xa4, 0xbe,
  0xee, 0x03, 0xa4, 0xbe, 0xbe, 0x8a, 0xf4, 0xbc, 0xb4, 0xff, 0x4d, 0xbd,
  0x3d, 0x67, 0xb0, 0xbd, 0x68, 0xd7, 0x9d, 0x3d, 0xeb, 0x53, 0x24, 0xbe,
  0x4a, 0x70, 0xba, 0xbc, 0xcd, 0x48, 0x59, 0xbd, 0x28, 0xbb, 0x8e, 0xbe,
  0x98, 0x9d, 0x4c, 0x3e, 0x98, 0xc2, 0x11, 0xbe, 0x24, 0xd0, 0x94, 0xbd,
  0xca, 0x75, 0xba, 0xbc, 0x84, 0xa7, 0x22, 0xbd, 0xb1, 0xe1, 0xc9, 0x3b,
  0xd4, 0xdc, 0x8b, 0xbd, 0x6f, 0x6d, 0xad, 0x3c, 0x82, 0xeb, 0x2d, 0xbe,
  0x5a, 0xb7, 0xbe, 0xbd, 0xfc, 0xe4, 0x21, 0xbe, 0xf7, 0x55, 0xe5, 0xbe,
  0xa8, 0xae, 0xfc, 0xbc, 0xd8, 0xcf, 0x6c, 0xbd, 0x6d, 0x9b, 0xd0, 0x3e,
  0xb9, 0xb2, 0x8e, 0xbd, 0x50, 0x59, 0x83, 0x3e, 0xf2, 0x22, 0xe8, 0xbc,
  0xbe, 0x31, 0x66, 0xbd, 0x1c, 0x99, 0x8e, 0xbe, 0xeb, 0x30, 0x15, 0xbe,
  0x7a, 0x2b, 0x56, 0x3e, 0x41, 0x55, 0xef, 0xbd, 0xac, 0xea, 0x5c, 0xbd,
  0x8c, 0x6d, 0x73, 0x3d, 0x05, 0xaf, 0xbd, 0xbd, 0x94, 0x2f, 0x1b, 0xbe,
  0x8c, 0x45, 0x8c, 0xbe, 0xc4, 0x39, 0x6c, 0xbc, 0xf2, 0x08, 0x5d, 0xbb,
  0x1c, 0x31, 0x4c, 0xbe, 0xa7, 0xff, 0x15, 0x3d, 0x8a, 0x1d, 0xb4, 0x3d,
  0x2c, 0x36, 0x54, 0xbd, 0xef, 0x77, 0x29, 0x3f, 0x11, 0x4c, 0x08, 0xbe,
  0xc3, 0x58, 0x09, 0xbe, 0x03, 0x32, 0x67, 0x3d, 0x2a, 0x42, 0x83, 0xbe,
  0xe9, 0xef, 0x85, 0xbd, 0xbc, 0xbe, 0xa4, 0x3d, 0xe3, 0x14, 0x52, 0xbe,
  0x2a, 0x76, 0x01, 0xbe, 0x45, 0x0b, 0xef, 0xbe, 0x96, 0x48, 0x91, 0xbe,
  0x1c, 0xe4, 0x8c, 0xbd, 0xb3, 0x4d, 0xf3, 0xbe, 0xf1, 0x22, 0x14, 0xbe,
  0xd3, 0x60, 0x49, 0x3e, 0xac, 0x20, 0xb9, 0xbd, 0x13, 0x70, 0x02, 0xbe,
  0x39, 0x26, 0x9b, 0xbe, 0x2b, 0x63, 0x15, 0xbd, 0x02, 0xa5, 0xe6, 0x3d,
  0x3c, 0xa0, 0x3c, 0x3e, 0x44, 0x97, 0x0c, 0xbd, 0xbf, 0x20, 0x0c, 0xbe,
  0x74, 0x06, 0x94, 0xbd, 0x48, 0x46, 0x45, 0xbc, 0x19, 0xb0, 0xc5, 0xbd,
  0x68, 0x61, 0x46, 0xbd, 0x4d, 0xdb, 0xa6, 0x3c, 0x19, 0x78, 0x64, 0xbe,
  0x18, 0x47, 0x0b, 0xbd, 0x0b, 0xfb, 0xf5, 0xbc, 0xab, 0x6b, 0x2c, 0x3f,
  0x08, 0x3b, 0xf1, 0xbb, 0x36, 0x5c, 0x07, 0xbe, 0x81, 0x06, 0x5d, 0xbe,
  0x17, 0xbd, 0x9c, 0xbc, 0x97, 0xeb, 0xb4, 0xbe, 0x62, 0xfd, 0x27, 0x3c,
  0xf6, 0xa1, 0xb6, 0x3d, 0x65, 0x12, 0xbb, 0xbe, 0xd9, 0x7f, 0x68, 0xbe,
  0xfb, 0x74, 0x7c, 0xbf, 0x66, 0x76, 0x9b, 0xbe, 0x04, 0xd2, 0x98, 0x3d,
  0x0d, 0xf8, 0xfc, 0xbe, 0xf2, 0xd5, 0x38, 0xbd, 0x43, 0x29, 0xcd, 0xbd,
  0xae, 0x5b, 0x9d, 0xbe, 0xbc, 0x4d, 0xe0, 0xbb, 0xe6, 0x28, 0xad, 0xbd,
  0x95, 0x0a, 0x56, 0xbe, 0x07, 0xb5, 0xf3, 0x3d, 0x48, 0x4e, 0x8d, 0xbe,
  0x38, 0xfb, 0xcc, 0xbd, 0xcb, 0xc5, 0x62, 0xbe, 0xa5, 0xb6, 0x81, 0x3e,
  0xe4, 0x12, 0x8e, 0x3e, 0x35, 0x50, 0xba, 0x3e, 0xa3, 0x0a, 0x46, 0x3d,
  0x3b, 0x85, 0x0e, 0xbd, 0x20, 0x71, 0x94, 0xbe, 0x01, 0xb3, 0xe6, 0x3c,
  0xb6, 0xc4, 0x4c, 0x3e, 0x2d, 0xad, 0xf1, 0xbd, 0xda, 0x9b, 0x81, 0x3e,
  0xc7, 0xc6, 0x34, 0x3e, 0xac, 0x60, 0x48, 0xbc, 0xd0, 0x85, 0x07, 0xbe,
  0x8a, 0xa5, 0x56, 0xbc, 0x66, 0x8a, 0xe1, 0xbd, 0xa6, 0x70, 0x0a, 0x3d,
  0xb0, 0xb3, 0xa8, 0xbe, 0x24, 0x0c, 0x73, 0x3e, 0xeb, 0xf3, 0x43, 0xbe,
  0x13, 0xdd, 0x25, 0xbc, 0xb4, 0xca, 0x2b, 0x3f, 0xf1, 0xd2, 0xf6, 0xbc,
  0x7d, 0x64, 0x20, 0x3d, 0x97, 0x1e, 0xbc, 0xbc, 0x31, 0xb5, 0x9d, 0xbe,
  0xe9, 0xac, 0xe0, 0xbd, 0x7d, 0xa9, 0x06, 0xbe, 0xc7, 0x5c, 0x4b, 0xbc,
  0xb8, 0x0e, 0xf8, 0x3c, 0x51, 0x58, 0xed, 0x3c, 0x43, 0x6c, 0x3f, 0xbc,
  0x96, 0x2a, 0x60, 0x3d, 0xe9, 0x6e, 0xff, 0xbe, 0xfc, 0xdb, 0x34, 0xbe,
  0x89, 0xa1, 0x17, 0x3e, 0x05, 0xc9, 0xd0, 0x3d, 0x42, 0xce, 0x05, 0xbd,
  0xb7, 0x59, 0xae, 0x3d, 0x19, 0x30, 0xc4, 0x3a, 0x34, 0x32, 0x2b, 0x3e,
  0xd0, 0xa5, 0x08, 0xbf, 0xfe, 0xa7, 0x94, 0xbd, 0xbf, 0xfa, 0x98, 0x3d,
  0xf8, 0xdb, 0x37, 0xbc, 0xc4, 0xbf, 0x34, 0xbe, 0x1e, 0x1a, 0xd8, 0x3d,
  0x91, 0x19, 0xbe, 0xbd, 0xbc, 0xa4, 0x1d, 0x3d, 0x11, 0x5c, 0xa0, 0x3e,
  0x7b, 0xa4, 0xfa, 0xbd, 0x13, 0x81, 0x35, 0x3e, 0x7a, 0x70, 0x86, 0x3e,
  0xa2, 0x17, 0xd4, 0x3d, 0xbb, 0xd8, 0x45, 0xbd, 0x34, 0xae, 0xe0, 0xbc,
  0xfc, 0xbd, 0xb6, 0xbd, 0x4e, 0x51, 0xab, 0x3d, 0xde, 0x54, 0x30, 0xbd,
  0xbb, 0xcb, 0x14, 0x3c, 0x8e, 0x0f, 0xe9, 0xbd, 0xd8, 0xfd, 0x5c, 0xbd,
  0x26, 0xc3, 0xc2, 0x3d, 0x43, 0xfd, 0x8a, 0x3d, 0xa5, 0x2f, 0xe6, 0xbc,
  0x2a, 0xdc, 0x87, 0x3a, 0x0b, 0x47, 0x56, 0x3e, 0xbc, 0x31, 0xca, 0xbc,
  0xed, 0xec, 0xda, 0xbd, 0x7a, 0xb5, 0x8d, 0xbc, 0xda, 0x11, 0x6d, 0xbc,
  0x51, 0x66, 0xf3, 0x3c, 0x4d, 0x94, 0xba, 0x3c, 0xc4, 0xa7, 0x0f, 0xbd,
  0x37, 0x86, 0xde, 0x3d, 0x5f, 0xec, 0x54, 0xbd, 0x62, 0xf6, 0x6d, 0x3d,
  0xbc, 0xfc, 0x9c, 0xbd, 0xc3, 0xaa, 0xce, 0x3d, 0xf0, 0xa1, 0x0c, 0x3c,
  0xe5, 0x99, 0xd6, 0xbe, 0xfa, 0xe9, 0x05, 0xbe, 0x50, 0x93, 0x5d, 0xbe,
  0x00, 0x6c, 0xcc, 0x3e, 0x18, 0x0a, 0x7b, 0xbe, 0x5b, 0xce, 0x3f, 0xbe,
  0x1c, 0xf4, 0x6f, 0xbe, 0x1c, 0xb4, 0x64, 0xbe, 0xd8, 0xaf, 0x38, 0xbe,
  0x0f, 0x86, 0x89, 0xbd, 0x31, 0xc3, 0x2e, 0xbd, 0x26, 0xe7, 0x3c, 0x3e,
  0xc3, 0x4f, 0x7d, 0xbe, 0x2b, 0x8c, 0xd0, 0xbc, 0x6e, 0xec, 0x5b, 0x3c,
  0xf3, 0xb4, 0xc0, 0xbd, 0x9a, 0x27, 0x80, 0xbd, 0x6d, 0xc1, 0x1a, 0xbe,
  0x6a, 0xce, 0xa7, 0x3d, 0x2b, 0xb0, 0x0c, 0xbd, 0x2e, 0x3c, 0x7e, 0xbe,
  0x00, 0xe5, 0x10, 0xbd, 0x53, 0xcd, 0x32, 0xbe, 0x24, 0xf4, 0x73, 0xbd,
  0xf0, 0xae, 0xf5, 0x3e, 0x77, 0xe8, 0xeb, 0x3c, 0xb5, 0x5a, 0x2a, 0x3d,
  0x1b, 0x67, 0x1f, 0x3d, 0x6f, 0x5c, 0x7d, 0x3e, 0xe9, 0xbb, 0xa2, 0x3e,
  0xd7, 0x4d, 0x87, 0x3e, 0x16, 0x89, 0xc3, 0x3d, 0x2d, 0xaf, 0x8a, 0xbe,
  0x9e, 0xe3, 0x0c, 0xbf, 0x7f, 0x2b, 0x56, 0xbf, 0xe8, 0xe7, 0x74, 0xbe,
  0xb5, 0x15, 0x8a, 0xbd, 0x88, 0xa5, 0x1b, 0xbe, 0x9d, 0xf6, 0xc2, 0xbd,
  0x5b, 0xb1, 0xeb, 0xbd, 0xe9, 0x9c, 0xb8, 0xbc, 0xf7, 0x04, 0x97, 0xbe,
  0xfc, 0x14, 0x44, 0xbf, 0xf3, 0x2c, 0xc6, 0x3e, 0x6e, 0x4f, 0xc1, 0x3e,
  0x70, 0x69, 0x5e, 0xbc, 0xce, 0xcc, 0xe9, 0xbd, 0x4a, 0xf4, 0xd6, 0xbc,
  0xe6, 0x50, 0x7c, 0x3d, 0xf5, 0x46, 0x82, 0x3d, 0xf4, 0xee, 0x28, 0x3e,
  0x76, 0x7e, 0x9e, 0x3e, 0x1b, 0x4c, 0x33, 0x3e, 0x26, 0x87, 0xf9, 0x3c,
  0xaa, 0xa7, 0x1b, 0x3e, 0xfe, 0x07, 0xbf, 0x3d, 0xfc, 0xbf, 0x3b, 0xbe,
  0xc0, 0x50, 0x18, 0xbd, 0x49, 0xb3, 0x6f, 0xbd, 0x7d, 0x17, 0x60, 0x3d,
  0x09, 0x27, 0x41, 0xbd, 0x07, 0xd6, 0x17, 0xbe, 0x81, 0xf8, 0x67, 0xbe,
  0x31, 0x1b, 0x68, 0xbe, 0xe0, 0x50, 0x21, 0xbe, 0xb8, 0x18, 0x44, 0xbe,
  0x32, 0xa4, 0x5a, 0x3e, 0xa5, 0xf0, 0x97, 0xbd, 0x85, 0x3a, 0xdb, 0xbe,
  0xac, 0xf0, 0x85, 0xbd, 0xc6, 0xf4, 0x0c, 0xbf, 0x00, 0xf4, 0x15, 0xbd,
  0x29, 0x13, 0x36, 0xbe, 0xa1, 0x23, 0xd4, 0x3e, 0x3a, 0x16, 0xe0, 0xbe,
  0xe2, 0x4c, 0xac, 0x3e, 0xf9, 0x0c, 0xee, 0xbb, 0x28, 0x0a, 0x80, 0xbd,
  0xab, 0x59, 0xf2, 0xbe, 0x70, 0xb8, 0xf6, 0xbc, 0x3a, 0xba, 0xae, 0x3d,
  0x91, 0xc3, 0xd8, 0xbd, 0x0a, 0x90, 0x7d, 0xbd, 0x75, 0xc6, 0x47, 0x3e,
  0x14, 0x91, 0x0a, 0xbe, 0xe8, 0x31, 0xf8, 0xbd, 0x6a, 0x9d, 0x1b, 0x3e,
  0x67, 0xd9, 0x46, 0xbe, 0x1b, 0xac, 0x69, 0x3e, 0x9d, 0xc9, 0x27, 0xbe,
  0xab, 0xfc, 0x0c, 0xbe, 0xe3, 0x71, 0x79, 0x3e, 0xa7, 0x6a, 0x85, 0x3c,
  0x4b, 0xdb, 0x23, 0xbe, 0xe3, 0xab, 0x98, 0x3e, 0xc0, 0x38, 0x4f, 0xbe,
  0x65, 0xaf, 0xa3, 0x3c, 0x4d, 0x98, 0xf2, 0x3c, 0x3a, 0xb0, 0x9c, 0xbd,
  0xe2, 0x55, 0x2f, 0xbe, 0x87, 0x18, 0x15, 0x3d, 0x3b, 0x26, 0x8e, 0x3c,
  0xd1, 0xd3, 0x55, 0x3e, 0x9b, 0x41, 0x6b, 0xbe, 0xa7, 0x0a, 0x52, 0x3d,
  0x8e, 0x00, 0x06, 0xbe, 0x5a, 0xcd, 0x98, 0xbe, 0x79, 0x40, 0x16, 0x3b,
  0x98, 0xad, 0x91, 0xbd, 0x35, 0x12, 0x27, 0xbe, 0xa4, 0xda, 0x5b, 0x3b,
  0xc9, 0x23, 0x78, 0xbe, 0x57, 0x5e, 0x30, 0xbe, 0xb2, 0x82, 0x08, 0x3e,
  0xd7, 0x04, 0xee, 0x3c, 0xd8, 0xd9, 0x0f, 0xbe, 0x48, 0xcf, 0x98, 0xbd,
  0xff, 0xf4, 0x88, 0x3e, 0xea, 0xca, 0x78, 0xbd, 0x75, 0xcd, 0xce, 0xbe,
  0x68, 0x49, 0x4f, 0xbd, 0x47, 0xa0, 0x2d, 0xbe, 0x02, 0x44, 0x1b, 0xbe,
  0x9e, 0xde, 0x15, 0xbe, 0x6f, 0x3c, 0xfa, 0x3c, 0x1d, 0xa2, 0x66, 0x3e,
  0x5d, 0x62, 0xc0, 0x3b, 0xbd, 0x55, 0xd9, 0xbe, 0x07, 0xda, 0x6d, 0xbe,
  0xdb, 0x66, 0x7f, 0xbd, 0x7e, 0xb0, 0x93, 0x3c, 0x45, 0x1a, 0x65, 0xbe,
  0x2c, 0xa1, 0x14, 0xbd, 0xc7, 0xc2, 0x41, 0x3d, 0x5e, 0x1d, 0xa3, 0x3c,
  0x90, 0xeb, 0x87, 0xbe, 0xf7, 0x53, 0x28, 0xbc, 0x43, 0x97, 0x55, 0x3d,
  0x91, 0xc5, 0xed, 0xbd, 0xbc, 0x27, 0xae, 0x3e, 0x46, 0xed, 0x51, 0xbe,
  0xd8, 0x3d, 0xb5, 0xbd, 0x11, 0xa6, 0xf8, 0xbb, 0x06, 0x20, 0x44, 0xbe,
  0x6c, 0xed, 0xab, 0x3d, 0xbc, 0x3e, 0xf2, 0xbd, 0x09, 0x5d, 0x1e, 0xbe,
  0x54, 0x68, 0x2c, 0x3e, 0xf9, 0x15, 0x17, 0xbd, 0xf6, 0x6a, 0x69, 0xbd,
  0x58, 0x70, 0x4b, 0xbd, 0x29, 0xbc, 0xfd, 0xbd, 0xd8, 0x5c, 0x34, 0xbe,
  0x3b, 0x70, 0xe8, 0xbc, 0x9e, 0xc2, 0x15, 0xbe, 0x2d, 0xa3, 0x9f, 0x3d,
  0x34, 0x05, 0x9b, 0x3b, 0x3c, 0x99, 0x8c, 0xbd, 0x33, 0x8d, 0x39, 0x3d,
  0x33, 0x8d, 0xfc, 0x3d, 0xc8, 0xab, 0xc8, 0xbe, 0x0e, 0x39, 0x82, 0xbd,
  0x80, 0x61, 0x84, 0xbd, 0x9a, 0x9f, 0x7c, 0x3e, 0x32, 0x52, 0x3f, 0xbe,
  0x58, 0x71, 0xe3, 0xbd, 0xe4, 0x45, 0x89, 0xbe, 0xbc, 0x18, 0x2e, 0xbe,
  0x97, 0x7e, 0x2e, 0xbe, 0x45, 0x3c, 0xa9, 0xbd, 0xbd, 0x5b, 0x91, 0xbd,
  0x3c, 0x98, 0x0e, 0x3e, 0x29, 0x23, 0x87, 0xbe, 0x62, 0x40, 0xdb, 0xbd,
  0x2b, 0xb4, 0x52, 0xbe, 0xb3, 0x8b, 0x4c, 0xbe, 0xb5, 0x13, 0xa2, 0x3e,
  0x65, 0x32, 0x54, 0xbd, 0x55, 0xf5, 0x8e, 0xbe, 0xdc, 0x42, 0x4e, 0x3e,
  0x93, 0xfb, 0x1b, 0xbe, 0xf6, 0x8b, 0x84, 0xbd, 0xf0, 0x2c, 0x90, 0xbd,
  0x26, 0xa4, 0xab, 0xbd, 0xf4, 0x15, 0x5a, 0x3c, 0x6b, 0x6b, 0x19, 0x3e,
  0x0b, 0x7d, 0x3f, 0xbe, 0x43, 0xe5, 0x69, 0x3d, 0x23, 0xdc, 0xfa, 0x3d,
  0xa1, 0x9a, 0x97, 0x3e, 0xc6, 0x04, 0x05, 0x3f, 0xff, 0x39, 0x20, 0x3e,
  0xde, 0xf4, 0x3b, 0x3e, 0x0a, 0x28, 0x80, 0xbe, 0x87, 0x62, 0xa8, 0x3d,
  0x32, 0x6e, 0x91, 0x3e, 0x6e, 0xe0, 0xc1, 0xbd, 0x33, 0xea, 0xb3, 0xbe,
  0xf1, 0x6b, 0x0b, 0xbe, 0x58, 0x1c, 0xce, 0xbd, 0xf2, 0xab, 0x53, 0xbe,
  0x8f, 0x1f, 0x87, 0x3e, 0x9a, 0x63, 0x1e, 0x3d, 0x0e, 0x59, 0xf6, 0x3e,
  0x33, 0xe9, 0x0b, 0xbd, 0x94, 0x01, 0x8b, 0xbe, 0xec, 0x0e, 0x97, 0xbd,
  0xd0, 0xcd, 0xf9, 0xbc, 0x81, 0x20, 0x99, 0x3e, 0xe1, 0xdf, 0x4a, 0x3b,
  0xe3, 0x96, 0xe3, 0xbb, 0xdb, 0x07, 0x9f, 0x3e, 0x50, 0x66, 0xb0, 0xbd,
  0xdd, 0xd6, 0x67, 0xbe, 0x15, 0x10, 0x9c, 0x3e, 0xa3, 0xad, 0x3c, 0xbe,
  0xa9, 0xa0, 0xb1, 0xbd, 0xa7, 0xb7, 0xb2, 0xbd, 0x27, 0x4b, 0xc9, 0xbc,
  0x46, 0xb9, 0xe1, 0x3c, 0xf8, 0x28, 0xd1, 0x3d, 0xcb, 0x53, 0x61, 0xbe,
  0xdd, 0x9d, 0x61, 0x3d, 0x4a, 0xe6, 0x3a, 0xbe, 0x14, 0xf4, 0x9a, 0x3d,
  0x2c, 0x30, 0x0d, 0x3e, 0xd2, 0x16, 0x22, 0xbe, 0xe9, 0x9a, 0x1c, 0x3e,
  0x7e, 0x55, 0xb3, 0x3e, 0xa4, 0x2b, 0x49, 0x3d, 0x2a, 0x20, 0x7f, 0x3d,
  0xac, 0x89, 0xb4, 0x3e, 0x26, 0x86, 0xda, 0xbe, 0xf9, 0x5b, 0x06, 0xbe,
  0xb8, 0x45, 0x36, 0xbd, 0x6b, 0xee, 0x55, 0x3e, 0x9c, 0x92, 0xc4, 0xbd,
  0x93, 0x48, 0x7a, 0xbd, 0x5b, 0xf4, 0x1e, 0xbe, 0x6e, 0x81, 0x87, 0xbb,
  0x23, 0xaa, 0xfd, 0xbe, 0x80, 0xf9, 0x52, 0xbd, 0xc0, 0xcb, 0x28, 0xbd,
  0x97, 0x4a, 0xe4, 0x3e, 0xaf, 0x64, 0xe9, 0xbd, 0x0d, 0x40, 0xb0, 0xbd,
  0x88, 0x68, 0x99, 0xbe, 0x6f, 0x0b, 0x6c, 0xbe, 0x85, 0xc2, 0xb2, 0xbd,
  0x92, 0xb9, 0x8b, 0xbd, 0xb8, 0x5c, 0x24, 0x3d, 0x9d, 0xc2, 0xbc, 0x3e,
  0xb7, 0xa0, 0x63, 0xbe, 0x5d, 0x36, 0xaa, 0xbb, 0x8e, 0xe4, 0xf7, 0xbe,
  0xb9, 0x72, 0x9e, 0xbe, 0xf6, 0x4d, 0xf7, 0x3e, 0x80, 0x83, 0x62, 0x3e,
  0xc9, 0x06, 0xf8, 0x3e, 0xfe, 0x7d, 0x49, 0x3d, 0x9f, 0x5c, 0x87, 0xbe,
  0x88, 0x9a, 0xae, 0xbd, 0x59, 0x1a, 0x7b, 0xbe, 0x68, 0xa1, 0x48, 0xbe,
  0x77, 0x13, 0xed, 0x3d, 0x7b, 0x86, 0x36, 0xbe, 0xe6, 0xa3, 0x19, 0xbd,
  0x72, 0x40, 0x08, 0x3e, 0x17, 0x30, 0x47, 0xbe, 0x89, 0xfc, 0x2f, 0xbe,
  0xa2, 0xe3, 0xea, 0x3d, 0x12, 0x2c, 0xa2, 0xbe, 0x04, 0xfb, 0x76, 0x3e,
  0xbb, 0x4b, 0x05, 0xbe, 0x48, 0x28, 0x83, 0xbe, 0x4b, 0xbf, 0x06, 0x3d,
  0x50, 0x5a, 0x2f, 0xbd, 0x25, 0x85, 0xb1, 0xbd, 0x1a, 0xeb, 0x28, 0xbd,
  0xfe, 0x7d, 0xbb, 0xbd, 0x5f, 0xe6, 0xc4, 0xbe, 0x23, 0xef, 0xb9, 0xbd,
  0x9d, 0xf9, 0x12, 0xbe, 0x7b, 0x51, 0x96, 0xbd, 0x7a, 0xbd, 0x00, 0x3e,
  0x9e, 0xeb, 0xda, 0xbd, 0x26, 0x5f, 0x5c, 0xbd, 0x5d, 0xdc, 0x5e, 0x3d,
  0x0a, 0xdf, 0xff, 0xff, 0x10, 0x00, 0x00, 0x00, 0x08, 0x00, 0x00, 0x00,
  0x1c, 0x00, 0x00, 0x00, 0x38, 0x00, 0x00, 0x00, 0x04, 0x00, 0x00, 0x00,
  0x10, 0x00, 0x00, 0x00, 0x04, 0x00, 0x00, 0x00, 0x01, 0x00, 0x00, 0x00,
  0x08, 0x00, 0x00, 0x00, 0x1a, 0x00, 0x00, 0x00, 0x73, 0x65, 0x71, 0x75,
  0x65, 0x6e, 0x74, 0x69, 0x61, 0x6c, 0x2f, 0x63, 0x6f, 0x6e, 0x76, 0x32,
  0x64, 0x5f, 0x31, 0x2f, 0x43, 0x6f, 0x6e, 0x76, 0x32, 0x44, 0x00, 0x00,
  0x04, 0xdf, 0xff, 0xff, 0xfa, 0xdf, 0xff, 0xff, 0x04, 0x00, 0x00, 0x00,
  0x80, 0x01, 0x00, 0x00, 0x18, 0x65, 0xce, 0x3e, 0x33, 0x53, 0x36, 0x3e,
  0x0e, 0x6e, 0x42, 0x3e, 0x54, 0xea, 0xe2, 0x3d, 0xd8, 0xa6, 0x2d, 0xbd,
  0xd0, 0x9c, 0x6e, 0x3d, 0xb7, 0xe6, 0x10, 0xbe, 0x4a, 0x23, 0x07, 0x3c,
  0xfb, 0x99, 0x2d, 0xbd, 0x5c, 0x19, 0xa0, 0xbd, 0x69, 0x9a, 0x7c, 0xbe,
  0xa9, 0x6e, 0x5b, 0xbe, 0x32, 0x03, 0xf5, 0xbd, 0x64, 0x4c, 0xdd, 0xbc,
  0x04, 0xd4, 0x28, 0xbe, 0x91, 0x48, 0x02, 0xbd, 0x7f, 0x31, 0x06, 0xbe,
  0xb8, 0x8f, 0xd2, 0xbe, 0x6e, 0x17, 0xd9, 0x3d, 0xdd, 0x5f, 0xf1, 0x3d,
  0x2b, 0x8e, 0x7f, 0x3e, 0xcd, 0x64, 0xc4, 0x3b, 0xc8, 0xde, 0xaf, 0x3e,
  0x9b, 0x3e, 0x28, 0x3f, 0xef, 0x4d, 0x9e, 0x3c, 0xfd, 0x62, 0xd5, 0x3c,
  0x64, 0x04, 0x18, 0xbe, 0x3e, 0x68, 0xcf, 0xbd, 0xf3, 0xa2, 0x98, 0xbd,
  0x6e, 0x0e, 0x1a, 0xbf, 0xd4, 0x6f, 0x75, 0x3e, 0x27, 0x56, 0x7c, 0x3e,
  0xc3, 0x64, 0x1d, 0x3f, 0xd2, 0xa0, 0x8b, 0xbd, 0x44, 0xb3, 0x0c, 0x3d,
  0xd9, 0xe5, 0x53, 0x3e, 0x54, 0xd9, 0xe5, 0xbd, 0xf3, 0xe3, 0x73, 0x3d,
  0x4e, 0x28, 0xc9, 0x3d, 0x62, 0xe6, 0xb9, 0xbe, 0xa1, 0x06, 0xaa, 0x3d,
  0xfd, 0xec, 0x95, 0x3e, 0x59, 0x20, 0x46, 0x3e, 0x35, 0x8e, 0x1b, 0xbc,
  0xd9, 0xa3, 0xcb, 0xbc, 0xc8, 0xc4, 0x99, 0x3e, 0xc0, 0xcc, 0xaa, 0xbd,
  0x77, 0x91, 0xb0, 0xbe, 0xae, 0xd8, 0x20, 0xbd, 0x21, 0x1c, 0x6c, 0x3d,
  0x32, 0xc9, 0x29, 0xbe, 0x4f, 0x0c, 0xf6, 0xbc, 0x54, 0xb4, 0x03, 0x3e,
  0xd5, 0x81, 0x8c, 0xbe, 0xcc, 0x76, 0xdf, 0x3d, 0x42, 0x23, 0x0c, 0xbe,
  0x1d, 0x96, 0xb9, 0x3c, 0x1a, 0xc8, 0xc5, 0xbd, 0xb6, 0x83, 0x19, 0xbe,
  0x36, 0xb0, 0x87, 0x3e, 0x4e, 0x0f, 0x75, 0xbd, 0x79, 0xff, 0xbd, 0x3d,
  0x92, 0x8f, 0x7a, 0xbd, 0x0d, 0xb7, 0x87, 0xbd, 0xc4, 0x89, 0x07, 0x3e,
  0x76, 0x49, 0x59, 0xbd, 0xfe, 0xc0, 0xc2, 0x3c, 0x59, 0x32, 0xe7, 0x3d,
  0x87, 0x0d, 0xae, 0xbd, 0xbb, 0xae, 0x89, 0x3d, 0x24, 0x01, 0x8b, 0x3d,
  0x6f, 0x9e, 0x9c, 0xbd, 0xaa, 0xbc, 0x73, 0x3d, 0x99, 0x5d, 0xb0, 0x3e,
  0x27, 0xcb, 0xcd, 0x3d, 0xf4, 0xdd, 0x26, 0x3d, 0x76, 0x8a, 0x1b, 0xbe,
  0xfe, 0xa2, 0x24, 0xbc, 0xe9, 0xa6, 0x54, 0x3d, 0x5c, 0x70, 0x3e, 0xbe,
  0x72, 0x33, 0x88, 0xbe, 0x85, 0x94, 0xf4, 0xbd, 0x51, 0xbc, 0xf3, 0xbd,
  0x0b, 0x4b, 0xc7, 0x3b, 0x41, 0xc1, 0xe5, 0x3d, 0x2f, 0xd6, 0x39, 0x3e,
  0x83, 0x4c, 0x82, 0xbe, 0x4a, 0x4c, 0xc9, 0xbd, 0xa5, 0x0d, 0x49, 0x3d,
  0xe2, 0xed, 0xa0, 0xbd, 0x7e, 0x6c, 0x7d, 0x3c, 0x2b, 0x63, 0x3f, 0x3c,
  0x4c, 0xdd, 0x03, 0xbe, 0xcd, 0xdb, 0x07, 0x3e, 0xa0, 0x30, 0x31, 0xbe,
  0xff, 0x73, 0x58, 0x3e, 0xe2, 0xe0, 0xff, 0xff, 0x10, 0x00, 0x00, 0x00,
  0x07, 0x00, 0x00, 0x00, 0x1c, 0x00, 0x00, 0x00, 0x38, 0x00, 0x00, 0x00,
  0x04, 0x00, 0x00, 0x00, 0x08, 0x00, 0x00, 0x00, 0x04, 0x00, 0x00, 0x00,
  0x03, 0x00, 0x00, 0x00, 0x01, 0x00, 0x00, 0x00, 0x18, 0x00, 0x00, 0x00,
  0x73, 0x65, 0x71, 0x75, 0x65, 0x6e, 0x74, 0x69, 0x61, 0x6c, 0x2f, 0x63,
  0x6f, 0x6e, 0x76, 0x32, 0x64, 0x2f, 0x43, 0x6f, 0x6e, 0x76, 0x32, 0x44,
  0x00, 0x00, 0x00, 0x00, 0xdc, 0xe0, 0xff, 0xff, 0xd2, 0xe1, 0xff, 0xff,
  0x04, 0x00, 0x00, 0x00, 0xc0, 0x00, 0x00, 0x00, 0x8a, 0x0b, 0x94, 0x3e,
  0x4d, 0x3c, 0xb3, 0x3e, 0xe0, 0x95, 0xa5, 0x3e, 0xa4, 0x62, 0x44, 0x3e,
  0x1a, 0xf8, 0xa6, 0x3d, 0x30, 0x6a, 0x57, 0xbe, 0x5a, 0x3f, 0x58, 0xbd,
  0xa1, 0xec, 0x70, 0xbe, 0x84, 0x7a, 0x84, 0x3d, 0x9d, 0x8d, 0x5e, 0x3e,
  0x2f, 0x67, 0x4b, 0xbe, 0x37, 0xc7, 0x56, 0xbe, 0x68, 0xd2, 0x90, 0x3e,
  0xa6, 0xd5, 0x93, 0xbe, 0xb7, 0x27, 0x9b, 0x39, 0xb1, 0xc6, 0xb3, 0x3e,
  0x55, 0xc4, 0xc6, 0xbd, 0x04, 0x4e, 0x52, 0xbe, 0x13, 0x38, 0xa5, 0x3e,
  0x3b, 0xaa, 0xef, 0xbd, 0x7a, 0x0e, 0xab, 0x3d, 0x09, 0x17, 0x99, 0xbd,
  0x7f, 0x82, 0x83, 0xbd, 0xd4, 0xe2, 0x83, 0xbe, 0x79, 0xcc, 0xa2, 0x3d,
  0x92, 0xe8, 0x78, 0x3e, 0xc9, 0xf2, 0x9a, 0xbd, 0x43, 0x8e, 0x71, 0xbe,
  0x15, 0x55, 0x85, 0xbe, 0xe8, 0x2d, 0xb6, 0xbe, 0xbc, 0x06, 0xd1, 0x3c,
  0x29, 0x1e, 0x2b, 0xbe, 0x16, 0x79, 0x06, 0xbf, 0xca, 0x1e, 0xdd, 0xbd,
  0xa7, 0xfe, 0xc0, 0x3e, 0xde, 0x54, 0x17, 0xbf, 0x1b, 0xc8, 0x7d, 0x3d,
  0x95, 0xee, 0x12, 0xbe, 0x90, 0xa4, 0x97, 0xbc, 0xb6, 0x38, 0x95, 0xbe,
  0x9f, 0x08, 0x28, 0x3e, 0x47, 0x31, 0x4c, 0x3e, 0xf8, 0x4b, 0x14, 0xbe,
  0x68, 0x5c, 0x88, 0xbe, 0x5e, 0x7b, 0xb0, 0x3d, 0xdc, 0xc5, 0xaa, 0xbe,
  0xa1, 0x73, 0x62, 0xbd, 0x90, 0x5d, 0x08, 0xbe, 0xfa, 0xe1, 0xff, 0xff,
  0x10, 0x00, 0x00, 0x00, 0x06, 0x00, 0x00, 0x00, 0x14, 0x00, 0x00, 0x00,
  0x30, 0x00, 0x00, 0x00, 0x02, 0x00, 0x00, 0x00, 0x03, 0x00, 0x00, 0x00,
  0x10, 0x00, 0x00, 0x00, 0x19, 0x00, 0x00, 0x00, 0x73, 0x65, 0x71, 0x75,
  0x65, 0x6e, 0x74, 0x69, 0x61, 0x6c, 0x2f, 0x64, 0x65, 0x6e, 0x73, 0x65,
  0x5f, 0x31, 0x2f, 0x4d, 0x61, 0x74, 0x4d, 0x75, 0x6c, 0x00, 0x00, 0x00,
  0xec, 0xe1, 0xff, 0xff, 0xe2, 0xe2, 0xff, 0xff, 0x04, 0x00, 0x00, 0x00,
  0x00, 0x1c, 0x00, 0x00, 0x23, 0x30, 0xbb, 0xbc, 0xdb, 0x0a, 0x48, 0xbe,
  0xed, 0x47, 0x00, 0xbe, 0x80, 0x87, 0xdf, 0xbc, 0xe5, 0xf7, 0x1c, 0x3d,
  0x4e, 0x13, 0x86, 0xbd, 0x6f, 0x20, 0x91, 0xbe, 0xe6, 0x44, 0xe9, 0xbd,
  0xd4, 0x46, 0xc2, 0x3d, 0xca, 0x8d, 0x53, 0xbe, 0xee, 0x39, 0x03, 0x3e,
  0x4a, 0xee, 0xae, 0x3e, 0x65, 0xe4, 0x54, 0xbd, 0x25, 0xef, 0x86, 0xbd,
  0x49, 0x13, 0x7e, 0xbd, 0xc1, 0xe6, 0x83, 0xbc, 0xb7, 0x6f, 0x2e, 0xbe,
  0xed, 0x66, 0x33, 0x3b, 0x30, 0x61, 0x90, 0xbe, 0x67, 0xe3, 0x10, 0xbe,
  0xce, 0xce, 0xaf, 0xbd, 0x06, 0x4c, 0xbd, 0x3d, 0x13, 0x9c, 0x98, 0xbe,
  0xc0, 0x18, 0xf3, 0x3d, 0xca, 0x6f, 0x80, 0x3c, 0x54, 0x81, 0xbf, 0x3d,
  0x65, 0x91, 0x51, 0x3e, 0x44, 0x1c, 0x1f, 0x3f, 0x54, 0x06, 0x10, 0x3e,
  0x86, 0x7c, 0x2c, 0xbe, 0xfd, 0xd7, 0x0f, 0xbd, 0x34, 0x6c, 0x1d, 0xbd,
  0xcf, 0x05, 0x06, 0x3e, 0x1d, 0xac, 0xe9, 0xbd, 0x11, 0x60, 0x2f, 0xbd,
  0x94, 0xee, 0x1e, 0xbe, 0x49, 0xe8, 0xc8, 0xbd, 0x84, 0x6a, 0x96, 0xbd,
  0x1d, 0xa4, 0xed, 0xbe, 0xc1, 0xb8, 0x72, 0x3d, 0xea, 0xf1, 0x7d, 0x3e,
  0x6e, 0x49, 0x4a, 0x3e, 0x15, 0xcc, 0x74, 0x3e, 0x80, 0x22, 0x85, 0x3f,
  0x13, 0xdc, 0x05, 0xbe, 0xcb, 0x96, 0x24, 0xbc, 0x80, 0x96, 0x65, 0xbe,
  0x44, 0x0f, 0x00, 0xbe, 0xf0, 0x55, 0xea, 0x3d, 0xb2, 0x34, 0x47, 0xbe,
  0xf9, 0xa2, 0xb6, 0xbc, 0x77, 0x88, 0xe0, 0x3c, 0x39, 0x1b, 0x0d, 0x3e,
  0xe5, 0x94, 0x5e, 0x3b, 0x7f, 0x1c, 0xc1, 0xbe, 0xe1, 0xa6, 0xec, 0x3d,
  0x82, 0xfd, 0x7c, 0x3b, 0xf2, 0xd4, 0xdb, 0x3d, 0x87, 0xc4, 0x97, 0x3e,
  0x24, 0x5e, 0x59, 0x3f, 0x57, 0x7b, 0x51, 0xbd, 0xcb, 0x88, 0xd9, 0xbd,
  0x59, 0xd8, 0x3c, 0xbd, 0xf8, 0xeb, 0xb2, 0xbd, 0xcb, 0xa2, 0x2b, 0x3d,
  0x5d, 0x1d, 0x39, 0xbd, 0x9e, 0xa8, 0xea, 0x3d, 0xbe, 0x8f, 0x5e, 0xbe,
  0x01, 0xb4, 0x88, 0xb9, 0x0b, 0x6c, 0xdc, 0xbd, 0xc9, 0xc7, 0x04, 0xbf,
  0xee, 0x0e, 0x1a, 0xbc, 0x04, 0x14, 0x86, 0x3e, 0xf9, 0x8b, 0x0e, 0x3d,
  0x03, 0x7e, 0x3f, 0x3d, 0x61, 0xa7, 0x5b, 0x3f, 0x69, 0xd4, 0x15, 0xbd,
  0x50, 0xef, 0x7f, 0x3d, 0xd0, 0x91, 0x65, 0xbe, 0x80, 0x31, 0x54, 0xbd,
  0xed, 0x36, 0x11, 0xbe, 0x95, 0x2d, 0x1b, 0xbe, 0x6f, 0x83, 0xaa, 0xbd,
  0xbd, 0xfb, 0x60, 0xbe, 0x56, 0x2b, 0x10, 0x3d, 0x0a, 0x73, 0x10, 0x3d,
  0x8e, 0x71, 0xd4, 0xbe, 0x12, 0xe5, 0xb8, 0xbc, 0x8c, 0xda, 0x9e, 0x3e,
  0x54, 0x82, 0xa7, 0xbd, 0xa7, 0x22, 0x96, 0x3e, 0x60, 0xb8, 0x66, 0x3f,
  0xd2, 0x51, 0xbb, 0xbd, 0x90, 0xcc, 0x87, 0xbd, 0xa5, 0x7b, 0x48, 0xbe,
  0xaa, 0xcb, 0xc0, 0xbd, 0x33, 0x19, 0x32, 0xbe, 0x9e, 0xca, 0x81, 0xbe,
  0xd9, 0x04, 0x6a, 0xbd, 0xfa, 0x40, 0x0d, 0xbc, 0x78, 0x12, 0xa7, 0xbc,
  0x63, 0x22, 0xa8, 0x3d, 0xa1, 0x64, 0x3f, 0xbe, 0xe2, 0x0c, 0x0b, 0xbe,
  0x6b, 0xc5, 0x84, 0xbe, 0x7f, 0xe3, 0x1c, 0x3e, 0x8b, 0x86, 0xaf, 0x3e,
  0xeb, 0xff, 0x19, 0x3f, 0x9f, 0x5d, 0xde, 0xbc, 0x6f, 0xbc, 0x09, 0xbe,
  0x53, 0x70, 0x5a, 0xbe, 0xaf, 0x42, 0x76, 0xbd, 0xf0, 0xdc, 0x96, 0xbe,
  0x07, 0xfc, 0x86, 0x3c, 0x0b, 0x06, 0x9f, 0xbd, 0x75, 0xc0, 0x40, 0x3d,
  0x8b, 0xe7, 0xe7, 0xbc, 0x74, 0x2c, 0x7d, 0xbe, 0x04, 0x62, 0x54, 0xbe,
  0xc4, 0x46, 0xc7, 0xbe, 0x98, 0xc6, 0x20, 0xbe, 0x4c, 0x02, 0x31, 0xbe,
  0x1b, 0xad, 0x31, 0x3e, 0xb1, 0x5c, 0x28, 0x3f, 0x8a, 0x7f, 0xaa, 0xbe,
  0x92, 0xff, 0x1b, 0xbe, 0x0e, 0x60, 0x40, 0xbd, 0x1a, 0xca, 0x48, 0xbe,
  0x53, 0x11, 0x18, 0x3d, 0xe2, 0x8e, 0x93, 0x3d, 0x61, 0x2c, 0x05, 0xbe,
  0x1a, 0xb1, 0x23, 0xbe, 0x3e, 0x70, 0x8d, 0x3d, 0x21, 0x27, 0xc6, 0xbd,
  0x8c, 0x69, 0x10, 0xbe, 0xfa, 0x9c, 0xc1, 0x3d, 0x63, 0xdb, 0x1f, 0xbd,
  0x4a, 0x84, 0x84, 0x3d, 0x97, 0xb9, 0x8d, 0x3d, 0xed, 0x17, 0x58, 0x3f,
  0x35, 0x3a, 0x82, 0xbe, 0x8b, 0xa4, 0x86, 0xbe, 0xae, 0xd5, 0x14, 0x3d,
  0x36, 0xe8, 0x91, 0xbd, 0xf9, 0xce, 0x82, 0x3d, 0x22, 0x78, 0x72, 0xbd,
  0x93, 0x22, 0x2e, 0xbe, 0x1d, 0x0b, 0x9e, 0xbe, 0x73, 0x84, 0x90, 0xbe,
  0xb9, 0x5d, 0x2a, 0xbe, 0xf3, 0xfc, 0x91, 0xbe, 0xdc, 0x2f, 0x64, 0xbc,
  0xed, 0xba, 0xfc, 0xbc, 0xa5, 0x55, 0x25, 0x3e, 0x77, 0x91, 0xce, 0xb9,
  0x80, 0xd5, 0xee, 0x3f, 0x96, 0x96, 0x4e, 0xbe, 0x02, 0x81, 0x9a, 0xbd,
  0xc6, 0x8a, 0x96, 0xbd, 0x8b, 0xc2, 0x79, 0xbe, 0x6f, 0x0b, 0xae, 0x3d,
  0x0a, 0x0d, 0x98, 0xbe, 0xb4, 0x2e, 0xf3, 0xbd, 0xe6, 0xcc, 0x77, 0x3c,
  0xae, 0xce, 0x18, 0xbe, 0xae, 0x30, 0x72, 0x3e, 0xb2, 0x5d, 0x24, 0xbe,
  0x49, 0x4d, 0x7e, 0x3e, 0x1c, 0xd2, 0x87, 0xbd, 0x58, 0x4a, 0x09, 0x3e,
  0x90, 0x10, 0x58, 0x3e, 0x8b, 0x95, 0xb7, 0x3f, 0x24, 0xf4, 0x4a, 0x3d,
  0x5a, 0x43, 0x6e, 0x3c, 0x0d, 0x81, 0xcd, 0x3d, 0x10, 0xa5, 0xc5, 0xbd,
  0xf7, 0x85, 0x31, 0xbe, 0x04, 0x8f, 0xcf, 0x3c, 0xd8, 0x62, 0x90, 0xbd,
  0x71, 0xcf, 0x83, 0xbe, 0xcb, 0x30, 0xc8, 0xbd, 0x0d, 0x63, 0x5b, 0x3d,
  0x6c, 0x4f, 0x7b, 0xbe, 0x83, 0x61, 0x72, 0xbe, 0x21, 0xff, 0x1e, 0x3b,
  0xac, 0x6a, 0x2e, 0xbd, 0xd6, 0xca, 0x97, 0x3e, 0x2a, 0x17, 0x1c, 0x40,
  0x53, 0xd3, 0x0e, 0xbe, 0x41, 0xe0, 0xeb, 0xbd, 0xf1, 0xad, 0x46, 0xbe,
  0x73, 0x66, 0x57, 0xbe, 0x13, 0xf4, 0xf6, 0xbd, 0x3e, 0xd2, 0x80, 0xbe,
  0x5e, 0x19, 0xa2, 0xbd, 0x7e, 0xaf, 0x9d, 0x3d, 0xae, 0xbe, 0x8e, 0xbe,
  0x22, 0x58, 0xa9, 0xbd, 0x29, 0x4a, 0x55, 0xbe, 0xd0, 0x08, 0x00, 0xbe,
  0xfe, 0x46, 0x68, 0xbe, 0x0c, 0x53, 0x38, 0xbe, 0x94, 0xb1, 0xc4, 0x3c,
  0x7b, 0xfd, 0xa0, 0x3f, 0x6a, 0x53, 0x2b, 0xbe, 0x0f, 0x6e, 0x1c, 0x3c,
  0xd3, 0x2c, 0xff, 0xbd, 0xac, 0x9a, 0x23, 0xbd, 0x2a, 0x95, 0x93, 0xbe,
  0xdf, 0x97, 0x47, 0x3d, 0x5d, 0xfc, 0x2e, 0xbc, 0x30, 0x00, 0x5a, 0xbe,
  0x19, 0xae, 0x5a, 0xbd, 0x93, 0x53, 0x21, 0xbe, 0x91, 0x0a, 0x94, 0xbe,
  0x99, 0x88, 0xe9, 0x3d, 0x25, 0x7e, 0xa9, 0xbe, 0x64, 0xf7, 0xad, 0x3c,
  0xdb, 0x57, 0x5b, 0x3e, 0x4c, 0x41, 0xfe, 0x3e, 0x32, 0x77, 0xd1, 0xbd,
  0x92, 0xd7, 0x72, 0xbe, 0xf9, 0x6b, 0x7f, 0xbe, 0x60, 0x71, 0xd7, 0xbd,
  0x90, 0x99, 0x4f, 0xbe, 0x23, 0xd4, 0xd3, 0xbe, 0xff, 0xc7, 0x3c, 0x3e,
  0xdb, 0xcc, 0x6b, 0x3e, 0xb3, 0xfd, 0x4e, 0xbe, 0x4e, 0x40, 0x3f, 0x3e,
  0xf5, 0x46, 0x10, 0xbd, 0x00, 0x7e, 0x23, 0x3d, 0x05, 0xba, 0x8c, 0xbe,
  0xbc, 0xdf, 0xb3, 0xbe, 0x4b, 0x71, 0x79, 0x3e, 0xf3, 0xc2, 0xa1, 0xbe,
  0x63, 0xa9, 0x89, 0xbe, 0xfe, 0xb5, 0x1f, 0xbe, 0xcc, 0xfb, 0xb0, 0xbe,
  0xbe, 0x98, 0x4a, 0xbe, 0xaa, 0xbc, 0xb2, 0x3e, 0x6e, 0xa8, 0x7d, 0xbe,
  0x03, 0x12, 0xec, 0x3d, 0xe1, 0x8b, 0x72, 0x3e, 0x5e, 0x49, 0x3d, 0x3e,
  0x58, 0xc8, 0xa9, 0x3d, 0x0f, 0x6d, 0x22, 0x3d, 0x3a, 0x19, 0xaa, 0xbe,
  0x58, 0x6f, 0xa3, 0x3d, 0x2c, 0xd1, 0xb4, 0x3b, 0xec, 0x55, 0x3d, 0x3e,
  0x00, 0x13, 0xf8, 0x3c, 0xee, 0x15, 0xa9, 0xbe, 0xcc, 0xdf, 0xd4, 0x3e,
  0xa9, 0x77, 0xab, 0xbe, 0x8a, 0x2e, 0x51, 0xbd, 0x3a, 0xff, 0xa2, 0x3e,
  0xba, 0xce, 0x93, 0x3d, 0xc3, 0x4d, 0x22, 0x3d, 0xae, 0x72, 0xf9, 0xbc,
  0xa5, 0x0e, 0x19, 0x3e, 0xd8, 0x29, 0x34, 0x3d, 0x2a, 0x3f, 0x8d, 0x3d,
  0x82, 0xb5, 0x46, 0xbe, 0x88, 0xea, 0x4c, 0x3e, 0x96, 0xaf, 0x8f, 0x3e,
  0xae, 0xa2, 0x91, 0x3e, 0xfc, 0xed, 0x22, 0xbe, 0x9b, 0xf0, 0x4c, 0x3b,
  0x6e, 0x3e, 0xa3, 0x3e, 0xe5, 0x7c, 0x86, 0xbe, 0x1d, 0x00, 0x16, 0x3d,
  0x18, 0x64, 0x98, 0x3e, 0xab, 0x06, 0x62, 0x3e, 0x4b, 0x5f, 0x9e, 0xbd,
  0x71, 0xe0, 0xe7, 0xbd, 0x9a, 0xbc, 0x64, 0xbd, 0xc6, 0x2e, 0x78, 0xbc,
  0x9f, 0x5b, 0x92, 0x3b, 0xf9, 0x05, 0xf6, 0xbd, 0xb6, 0x73, 0x0c, 0x3e,
  0x23, 0x88, 0xca, 0x3e, 0xde, 0xf6, 0x5b, 0x3e, 0xc0, 0x58, 0xa8, 0xbd,
  0x4d, 0xef, 0x48, 0x3c, 0x71, 0x50, 0xb7, 0x3e, 0x3b, 0x83, 0x79, 0xbe,
  0x51, 0xaf, 0xb2, 0x3d, 0x51, 0xc4, 0x35, 0x3d, 0x5c, 0x5c, 0x97, 0x3c,
  0xa6, 0xa8, 0xf9, 0xbb, 0x40, 0x2c, 0x8b, 0xbd, 0x94, 0x74, 0xc9, 0xbd,
  0x95, 0x86, 0x83, 0x3d, 0xc6, 0x41, 0x79, 0x3d, 0xa8, 0x88, 0x80, 0xbe,
  0xa8, 0xc3, 0xb9, 0x3d, 0x03, 0x4f, 0xb5, 0xbe, 0xa8, 0x7f, 0x77, 0x3e,
  0xb2, 0xcf, 0xba, 0xbd, 0x76, 0x25, 0x9c, 0xbe, 0xb5, 0x00, 0x41, 0x3e,
  0xed, 0xd3, 0xde, 0xbd, 0xbc, 0xa3, 0xa6, 0x3c, 0x3b, 0x45, 0xf6, 0x3d,
  0x44, 0x71, 0x29, 0x3d, 0xc5, 0x59, 0x95, 0xbe, 0x61, 0xb2, 0x0d, 0xbe,
  0x6a, 0xc1, 0x80, 0xbc, 0x5c, 0x2e, 0xcb, 0x3e, 0xcb, 0x79, 0x15, 0x3d,
  0x55, 0x51, 0xff, 0xbe, 0x30, 0x52, 0xb3, 0xbd, 0x3b, 0x56, 0x81, 0xbe,
  0xb5, 0x5a, 0x47, 0x3e, 0x86, 0x01, 0xd3, 0xbe, 0x0d, 0x5d, 0xe4, 0xbe,
  0x53, 0xe6, 0x2c, 0xbd, 0x9c, 0xaf, 0xdb, 0xbe, 0xfb, 0xa0, 0x3a, 0xbc,
  0x6f, 0x55, 0x04, 0xbd, 0xfa, 0xe8, 0x17, 0xbe, 0x94, 0x50, 0xae, 0xbe,
  0x1b, 0x05, 0xfd, 0xbe, 0x04, 0xe8, 0x4b, 0xbe, 0x49, 0xb0, 0xcb, 0x3d,
  0x72, 0xfe, 0x06, 0xbc, 0x16, 0x9d, 0x33, 0xbe, 0x40, 0x62, 0xd4, 0xbb,
  0xf0, 0x4e, 0x7a, 0x3d, 0x12, 0x14, 0x84, 0x3e, 0xab, 0xff, 0xcb, 0x3e,
  0x47, 0x27, 0x76, 0xbe, 0x25, 0x55, 0xf4, 0x3c, 0x55, 0xd5, 0x90, 0xbc,
  0x3b, 0xb2, 0xa9, 0x3c, 0x21, 0x7b, 0xd4, 0x3b, 0x5a, 0xc9, 0x19, 0xbc,
  0x66, 0xfb, 0xa3, 0x3c, 0xc4, 0xb9, 0x9e, 0x3c, 0x70, 0x1d, 0x52, 0xbe,
  0x71, 0x7f, 0xb7, 0xbd, 0x40, 0xf3, 0x63, 0xbe, 0xbc, 0x6a, 0x69, 0xbd,
  0x89, 0x5f, 0xf4, 0x3c, 0x2b, 0xe1, 0x2e, 0x3d, 0x49, 0x49, 0x25, 0x3d,
  0x88, 0x27, 0xc1, 0x3e, 0xc7, 0xe0, 0x2f, 0xbe, 0x74, 0x3f, 0x86, 0xbd,
  0xfc, 0x19, 0x91, 0xbe, 0xf6, 0x40, 0xcc, 0xbd, 0x16, 0xfc, 0xcf, 0xbd,
  0x29, 0xac, 0xdc, 0xbd, 0xf7, 0x5c, 0x97, 0x3d, 0x47, 0x90, 0x31, 0x3e,
  0x92, 0x54, 0xd5, 0xbc, 0xb9, 0x96, 0x1d, 0xbe, 0x5d, 0xfb, 0x95, 0xbe,
  0xf1, 0x6c, 0x1d, 0x3e, 0xe7, 0xf3, 0x42, 0xbe, 0xb2, 0x29, 0x48, 0x3e,
  0x7b, 0xb1, 0x5e, 0x3e, 0xa4, 0xd0, 0x9c, 0x3f, 0x63, 0xaa, 0x47, 0xbd,
  0xc0, 0xfe, 0x9a, 0xbd, 0x30, 0x2a, 0x5a, 0xbe, 0x2b, 0x74, 0xc0, 0xbd,
  0x85, 0xab, 0x32, 0xbe, 0xdd, 0x11, 0x07, 0xbb, 0xdb, 0xf5, 0xcd, 0xbc,
  0x39, 0x94, 0xe4, 0x3d, 0x5c, 0x1e, 0x1d, 0xbd, 0xbb, 0xdc, 0x69, 0xbe,
  0x2b, 0xb8, 0x30, 0xbe, 0x86, 0xc2, 0x06, 0x3e, 0x79, 0x68, 0xfc, 0x3c,
  0x0c, 0x6c, 0xbe, 0x3c, 0x08, 0xe0, 0xf3, 0x3d, 0xc7, 0x2c, 0x6b, 0x3f,
  0x72, 0xca, 0xfa, 0xbc, 0x8f, 0x79, 0xa8, 0xbd, 0xd5, 0xc0, 0x06, 0xbe,
  0x31, 0x24, 0x3a, 0xbe, 0xb7, 0xd7, 0x0a, 0xbe, 0x92, 0x61, 0x56, 0xbe,
  0x6b, 0x75, 0xa4, 0xbd, 0x97, 0xea, 0x34, 0xbe, 0x27, 0x68, 0xba, 0x3d,
  0x5c, 0x73, 0x2d, 0x3b, 0x46, 0x22, 0x35, 0xbe, 0xd9, 0xb7, 0x0d, 0x3e,
  0xda, 0xcf, 0xa9, 0xbc, 0x32, 0x47, 0x68, 0xbe, 0x4f, 0xfb, 0x59, 0x3e,
  0x6a, 0x37, 0xb6, 0x3f, 0x6f, 0xc9, 0x26, 0xbe, 0x71, 0xb3, 0x19, 0x3e,
  0x91, 0x09, 0x73, 0x3d, 0x52, 0xf2, 0x83, 0xbe, 0x19, 0x4f, 0x6f, 0xbe,
  0x7f, 0x9b, 0x10, 0x3e, 0x12, 0xd2, 0x82, 0xbe, 0x88, 0x5f, 0xfe, 0xbd,
  0x04, 0x4a, 0xde, 0xbb, 0xa9, 0x56, 0x14, 0xbd, 0x34, 0x2b, 0xb9, 0xbe,
  0x09, 0x1b, 0xa4, 0xbd, 0xc2, 0x98, 0x42, 0x3d, 0x20, 0xee, 0x23, 0x3d,
  0xd2, 0xdc, 0xf0, 0x3b, 0x18, 0x34, 0x92, 0x3f, 0x1c, 0x59, 0x7d, 0x3d,
  0x89, 0xa8, 0xa0, 0xbd, 0x91, 0xd2, 0xbb, 0x3d, 0x9f, 0x78, 0x65, 0xbd,
  0x1d, 0xaf, 0x52, 0xbd, 0x9b, 0xa5, 0xc9, 0xbc, 0x01, 0xd6, 0x99, 0x3d,
  0x74, 0x2a, 0xad, 0xbc, 0x79, 0x9e, 0x83, 0xbe, 0xd1, 0x7a, 0x74, 0xbe,
  0xc5, 0x77, 0x99, 0xbe, 0x46, 0x4d, 0xa2, 0xbc, 0x8a, 0x75, 0x8b, 0xbe,
  0x1c, 0x89, 0x09, 0x3e, 0x10, 0x67, 0x1d, 0x3e, 0x7e, 0xe7, 0x86, 0x3f,
  0x55, 0x2d, 0x2d, 0xbe, 0x44, 0x89, 0x77, 0xbe, 0x0d, 0x9d, 0x84, 0x3d,
  0x10, 0xb6, 0x74, 0xbe, 0xfa, 0x9f, 0x3c, 0x3d, 0xfa, 0x3b, 0x12, 0xbd,
  0xe3, 0xf7, 0x8d, 0x3d, 0x5b, 0x0f, 0x27, 0x3e, 0x42, 0x10, 0x01, 0xbe,
  0x64, 0x71, 0x8c, 0x3d, 0x24, 0x3d, 0x42, 0xbe, 0x49, 0x03, 0xb2, 0x3c,
  0x5b, 0xd9, 0x9d, 0xbe, 0x1a, 0x7c, 0x4e, 0xbe, 0xc4, 0x72, 0xc4, 0x3d,
  0x5f, 0xfd, 0x62, 0x3e, 0x99, 0x89, 0x78, 0xbe, 0xc9, 0xb2, 0xc4, 0xbe,
  0x49, 0x65, 0x49, 0xbd, 0x3f, 0x39, 0x75, 0xbd, 0xb4, 0x0e, 0x9c, 0x3e,
  0x7f, 0x4e, 0x52, 0x3e, 0xd9, 0xe8, 0x00, 0xbe, 0x2e, 0xf2, 0x82, 0xbe,
  0x13, 0xb4, 0x17, 0x3e, 0xf7, 0x04, 0xca, 0xbd, 0x4c, 0xd7, 0x7c, 0xbd,
  0x22, 0xfe, 0x85, 0x3d, 0x76, 0x75, 0x9c, 0xbe, 0xab, 0xff, 0x1a, 0x3e,
  0xde, 0x10, 0x65, 0x3d, 0x04, 0x1f, 0xf2, 0x3e, 0x41, 0xa1, 0x3e, 0x3d,
  0xe0, 0x68, 0xa7, 0x3d, 0xb1, 0x78, 0x80, 0xbe, 0xb0, 0x9c, 0xa8, 0x3e,
  0x22, 0x4a, 0x44, 0xbe, 0x17, 0xb6, 0xa3, 0xbd, 0xa6, 0xe8, 0xe5, 0xbd,
  0xc0, 0x84, 0x5b, 0xbe, 0x4f, 0x57, 0x76, 0xbe, 0x79, 0xf0, 0x1b, 0x3d,
  0x5f, 0x44, 0x2b, 0xbd, 0xa3, 0xae, 0xc2, 0xbd, 0x62, 0x89, 0xe7, 0xbd,
  0x95, 0x7b, 0xa4, 0x3e, 0x6c, 0x8b, 0x0b, 0x3c, 0xfb, 0x8d, 0x83, 0x3e,
  0xd9, 0xf7, 0x45, 0x3d, 0x16, 0x66, 0xad, 0x3c, 0x1b, 0x49, 0x9c, 0xba,
  0xf0, 0x5b, 0x3f, 0x3e, 0xa8, 0x6c, 0xea, 0xbe, 0x7a, 0x8c, 0x76, 0xbc,
  0x33, 0x9b, 0x60, 0xbd, 0xab, 0xf1, 0xf8, 0xbc, 0x2d, 0x31, 0xd2, 0x3d,
  0x40, 0xcb, 0x09, 0xbc, 0xe2, 0xfc, 0x37, 0x3c, 0x2e, 0x9a, 0x54, 0xbe,
  0x15, 0x75, 0x0d, 0x3d, 0x06, 0x21, 0x40, 0xbe, 0xdf, 0x57, 0x45, 0x3d,
  0x80, 0xb7, 0xc5, 0xbd, 0xba, 0x55, 0x9d, 0xbe, 0xf4, 0x5c, 0x71, 0xbe,
  0xe2, 0xc5, 0x88, 0x3e, 0xaf, 0x6e, 0x21, 0xbe, 0x5a, 0xab, 0x40, 0xbe,
  0x47, 0xd0, 0x0b, 0xbf, 0xff, 0xe9, 0xd8, 0xbc, 0x2a, 0x2e, 0x49, 0x3c,
  0xea, 0xfd, 0x06, 0xbe, 0x2b, 0xc9, 0x1a, 0xbd, 0x64, 0x6d, 0xdc, 0xbd,
  0x6b, 0xd6, 0x30, 0xbe, 0x31, 0xd1, 0x13, 0xbe, 0x27, 0xf7, 0x9b, 0x3d,
  0xba, 0x78, 0x57, 0xbd, 0xe8, 0x2d, 0x9b, 0x3d, 0x43, 0x20, 0xd6, 0xbe,
  0x48, 0x61, 0x19, 0xbe, 0x4c, 0x51, 0x9e, 0xbe, 0xf0, 0x34, 0x59, 0xbe,
  0xf0, 0x42, 0xa1, 0xbe, 0x98, 0x84, 0x3b, 0xbe, 0xba, 0x1f, 0xb4, 0xbd,
  0x37, 0xa9, 0xfc, 0xbd, 0xde, 0xd9, 0xb5, 0xbd, 0xe5, 0xc0, 0xa9, 0xbd,
  0x1b, 0xe9, 0x86, 0xbd, 0x8d, 0xa0, 0xa8, 0xbe, 0xbd, 0xc8, 0x9a, 0xbe,
  0xa2, 0x70, 0xb4, 0x3b, 0xf0, 0xbd, 0xed, 0xbd, 0xbb, 0xf8, 0xda, 0xbd,
  0x5c, 0xe8, 0x6a, 0xbe, 0x61, 0x4f, 0x59, 0xbe, 0xba, 0x35, 0x2b, 0xbe,
  0x7f, 0x69, 0x32, 0xbe, 0x66, 0x91, 0xbe, 0xbd, 0x7f, 0x7d, 0xc4, 0xbe,
  0x7e, 0xdd, 0x5f, 0x3e, 0x3c, 0xa3, 0x55, 0x3e, 0x7e, 0x9e, 0xbb, 0xbc,
  0xea, 0x43, 0xd0, 0xbe, 0x59, 0xc6, 0x48, 0xbd, 0x30, 0xb7, 0x00, 0x3d,
  0x8a, 0x59, 0x85, 0xbe, 0xd7, 0xb0, 0x86, 0x3e, 0x40, 0x2c, 0xde, 0xbd,
  0x79, 0x74, 0xf7, 0xbd, 0xcb, 0x0f, 0x10, 0xbd, 0xee, 0x87, 0x5d, 0xbd,
  0x98, 0xf2, 0xa1, 0x3c, 0x45, 0x1a, 0x06, 0xbf, 0x82, 0x78, 0x7c, 0x3d,
  0x47, 0xe7, 0x9f, 0x3d, 0x11, 0x5d, 0xf5, 0x3d, 0x10, 0xcc, 0xa0, 0x3e,
  0xb5, 0x55, 0x16, 0x3e, 0x35, 0x91, 0x88, 0xbc, 0x5b, 0xcb, 0x23, 0x3c,
  0x5a, 0xfc, 0x21, 0x3e, 0x07, 0xaa, 0x64, 0xbe, 0x4e, 0x27, 0x33, 0x3e,
  0x67, 0x19, 0xa3, 0x3b, 0x91, 0x3c, 0xea, 0xbd, 0x91, 0x7e, 0xe7, 0x3d,
  0x75, 0xfe, 0x8a, 0x3d, 0x0b, 0xea, 0xba, 0xbd, 0x9d, 0x1e, 0x1c, 0x3d,
  0x98, 0x76, 0xfa, 0xbd, 0x0c, 0x82, 0x05, 0xbe, 0x78, 0x2a, 0x56, 0x3d,
  0xb8, 0x30, 0x15, 0xbe, 0x45, 0xdb, 0x6a, 0xbd, 0x3e, 0x77, 0x78, 0xbd,
  0x46, 0x06, 0x6b, 0xbe, 0x10, 0xd0, 0xa7, 0x3d, 0xde, 0x2c, 0x32, 0xbe,
  0x1f, 0xbc, 0xb1, 0xbd, 0x2e, 0x1c, 0xe6, 0xbc, 0x31, 0xd0, 0xb6, 0x3e,
  0xbc, 0x75, 0x52, 0xbc, 0xbb, 0xc5, 0xb5, 0xbd, 0xc1, 0x8b, 0x4b, 0xbe,
  0xfd, 0x66, 0xe7, 0x3d, 0x0e, 0xba, 0x49, 0xbe, 0xbe, 0xff, 0xad, 0xbd,
  0x01, 0xaa, 0x9d, 0x3d, 0x98, 0x7e, 0x47, 0xbe, 0xa6, 0x61, 0x92, 0x3c,
  0xd6, 0xc0, 0xf3, 0x3d, 0xf2, 0x83, 0x4f, 0xbe, 0xf6, 0xbf, 0x91, 0x3e,
  0x00, 0xf4, 0x3f, 0xbd, 0xbd, 0x73, 0x92, 0x3d, 0xc5, 0xa3, 0xe7, 0x3d,
  0xfe, 0x31, 0xa1, 0x3e, 0x50, 0xc8, 0x09, 0x3d, 0xa8, 0x0b, 0xa3, 0x3d,
  0xdd, 0x7e, 0x3e, 0xbe, 0x3b, 0xbf, 0x9b, 0x3d, 0xb1, 0x5b, 0xed, 0x3d,
  0xe5, 0xb4, 0x7c, 0xbd, 0x0c, 0xeb, 0x2b, 0x3d, 0x47, 0xf3, 0xb6, 0xbd,
  0x1b, 0xd0, 0xb0, 0xbd, 0x15, 0x33, 0x73, 0x3d, 0x3f, 0x3c, 0x93, 0xbe,
  0xb5, 0x99, 0x50, 0xbc, 0x08, 0xed, 0xca, 0xbe, 0xcb, 0x5c, 0x9d, 0xbd,
  0xdd, 0x89, 0x5a, 0xbe, 0xae, 0x4a, 0x20, 0x3e, 0xf1, 0xc8, 0x0d, 0xbe,
  0x49, 0x5f, 0xbd, 0x3d, 0x60, 0x9b, 0x08, 0xbc, 0x1b, 0x18, 0x79, 0x3d,
  0xea, 0x0d, 0x01, 0xbe, 0x9d, 0x7c, 0xc6, 0xbe, 0xc5, 0x6d, 0x81, 0xbb,
  0x30, 0x3a, 0x76, 0xbe, 0xc2, 0x5a, 0x61, 0xbe, 0x34, 0x66, 0xd9, 0x3d,
  0xb5, 0xeb, 0x8c, 0xbe, 0x6f, 0xc8, 0x15, 0xbe, 0x51, 0xb1, 0x6f, 0xbe,
  0xe9, 0x9b, 0x53, 0xbe, 0xfe, 0xa9, 0x60, 0xbe, 0xd8, 0x81, 0xcd, 0x3e,
  0xc3, 0x3d, 0xe3, 0xbe, 0x25, 0x48, 0x9c, 0xbe, 0x2e, 0x4c, 0x92, 0xbe,
  0x6e, 0x0d, 0x76, 0xbd, 0x66, 0x39, 0x16, 0xbe, 0xae, 0xcf, 0x13, 0xbe,
  0x6c, 0xa1, 0x63, 0x3e, 0xf3, 0x7d, 0x83, 0x3e, 0x50, 0xf4, 0x55, 0x3e,
  0x86, 0x1b, 0xc9, 0xbd, 0x77, 0x4e, 0x27, 0xbe, 0x40, 0xf0, 0x21, 0x3d,
  0x32, 0xbf, 0x96, 0xbe, 0x4b, 0x0a, 0x1b, 0xbd, 0xf9, 0xcc, 0x08, 0xbe,
  0x11, 0xc1, 0xb5, 0x3d, 0xe4, 0x07, 0xb0, 0xbd, 0x53, 0xd1, 0x91, 0xbe,
  0x73, 0x44, 0x21, 0xbd, 0x13, 0xb9, 0x3a, 0xbe, 0xb7, 0x2e, 0x62, 0x3e,
  0x78, 0xab, 0x76, 0x3e, 0x32, 0x3e, 0x64, 0x3e, 0x4c, 0x34, 0xc6, 0x3e,
  0x1f, 0x2e, 0xc1, 0x3d, 0x8b, 0x7c, 0xa0, 0x3d, 0x7d, 0xfa, 0x78, 0xbd,
  0x46, 0x7c, 0x9e, 0xbd, 0xa5, 0xd9, 0x5d, 0xbe, 0xb1, 0x16, 0xb7, 0x3d,
  0x33, 0x85, 0xc3, 0xbd, 0x79, 0x68, 0x4f, 0x3e, 0x7e, 0x73, 0xf0, 0x3d,
  0x4a, 0x31, 0x36, 0x3e, 0xcf, 0x17, 0x05, 0xbc, 0x54, 0x1a, 0x3c, 0x3e,
  0x76, 0x1a, 0x40, 0xbd, 0x3f, 0x2f, 0x03, 0xbe, 0xab, 0x65, 0xbb, 0x3d,
  0xe7, 0x66, 0x85, 0x3d, 0x63, 0xbc, 0xc1, 0x3e, 0xef, 0x06, 0x4e, 0xbe,
  0x1b, 0xbd, 0x04, 0xbb, 0x11, 0xe3, 0xd6, 0xbb, 0xb2, 0xcf, 0xba, 0xbd,
  0xa4, 0x49, 0xa7, 0x3e, 0x89, 0x77, 0xe1, 0xbb, 0xa0, 0x45, 0x89, 0x3e,
  0x35, 0xb6, 0x80, 0x3d, 0x9c, 0x93, 0x1c, 0x3d, 0xfd, 0x46, 0x24, 0xbd,
  0x25, 0x4d, 0x2a, 0x3e, 0x03, 0x77, 0x26, 0x3e, 0x6c, 0x3a, 0xd9, 0xbd,
  0x64, 0x5a, 0xa8, 0x3d, 0x82, 0x9a, 0xcb, 0xbd, 0x53, 0x2d, 0xa0, 0x3e,
  0x57, 0xef, 0xd0, 0x3e, 0xb3, 0xd4, 0x2a, 0xbe, 0xa9, 0xb1, 0xe5, 0x3c,
  0xc2, 0x19, 0x0a, 0xbe, 0x22, 0x24, 0x11, 0xbe, 0x29, 0xab, 0x1f, 0x3f,
  0xaf, 0xfd, 0xa2, 0x3d, 0xd1, 0xa3, 0xb2, 0xbd, 0x32, 0x53, 0x69, 0x3d,
  0x55, 0x79, 0x9f, 0xbe, 0xa8, 0x72, 0x17, 0xbe, 0x30, 0xd6, 0x91, 0x3e,
  0x85, 0x64, 0xb9, 0x3d, 0x2c, 0x76, 0x07, 0x3e, 0x2a, 0x9d, 0x3c, 0x3e,
  0x0f, 0x74, 0xbd, 0x3d, 0x73, 0x28, 0xb2, 0x3e, 0x9e, 0x03, 0xf0, 0xbd,
  0x8c, 0x68, 0xfb, 0x3d, 0x35, 0x94, 0x81, 0x3e, 0x73, 0xd6, 0x08, 0xbe,
  0x76, 0x59, 0x5f, 0x3e, 0xc2, 0x3d, 0x9c, 0xbe, 0xf5, 0x67, 0x81, 0xbb,
  0xa2, 0x8b, 0xa0, 0x3e, 0xb9, 0xb4, 0x43, 0xbd, 0x8b, 0x1c, 0x43, 0xbe,
  0x51, 0x02, 0x73, 0x3e, 0x9c, 0x0c, 0x8d, 0x3e, 0x3f, 0xf0, 0xe3, 0x3d,
  0xaf, 0x12, 0x92, 0x3d, 0x59, 0xc2, 0x57, 0x3e, 0x63, 0x15, 0xb6, 0xbd,
  0x18, 0xeb, 0x88, 0xbd, 0x6a, 0x10, 0x8c, 0xbd, 0x50, 0xeb, 0x93, 0x3e,
  0x67, 0xc1, 0xdf, 0x3e, 0x4d, 0x30, 0x6e, 0x3e, 0x76, 0x98, 0x59, 0xbe,
  0x7c, 0xb7, 0x08, 0x3d, 0x55, 0x46, 0xb9, 0x3e, 0xd8, 0xee, 0x2e, 0xbe,
  0xed, 0xd6, 0x94, 0x3e, 0x72, 0x13, 0x79, 0x3e, 0x78, 0x8a, 0xf9, 0x3e,
  0xba, 0x0c, 0x74, 0xba, 0x38, 0xac, 0x6a, 0xbe, 0x01, 0xf6, 0x58, 0xbd,
  0xc5, 0xe2, 0x0b, 0x3e, 0x76, 0x8b, 0x05, 0xbe, 0x25, 0x56, 0xb9, 0x3d,
  0x9e, 0xa7, 0x27, 0x3e, 0xbb, 0xc1, 0xef, 0x3e, 0x63, 0xf3, 0x02, 0x3e,
  0xf7, 0x78, 0x87, 0xbd, 0xc6, 0xa1, 0x51, 0x3e, 0xb9, 0x38, 0xb3, 0x3e,
  0xb2, 0xb1, 0xc2, 0x3d, 0xa3, 0x8e, 0x58, 0x3d, 0xe2, 0xbd, 0x31, 0x3e,
  0x31, 0x49, 0xf9, 0x3d, 0xbc, 0x80, 0xb3, 0xbd, 0xf5, 0xa6, 0x8b, 0xbe,
  0xe6, 0x68, 0x8d, 0xbe, 0xf5, 0x61, 0x04, 0x3e, 0xf4, 0x13, 0x52, 0xbe,
  0xa2, 0x9e, 0x16, 0x3d, 0xe8, 0x42, 0xf8, 0x3d, 0x6c, 0x02, 0xa8, 0x3d,
  0xc3, 0x89, 0x01, 0x3f, 0x5e, 0x0a, 0xb1, 0xbe, 0xfa, 0xe8, 0x14, 0xbe,
  0x3b, 0x61, 0x2b, 0x3e, 0x28, 0x5a, 0x66, 0xbe, 0xc8, 0x4d, 0x76, 0xbc,
  0xeb, 0x02, 0xb1, 0x3e, 0x54, 0x0b, 0x73, 0x3e, 0x57, 0x70, 0x83, 0xbd,
  0x7d, 0x1d, 0x4e, 0xbe, 0x86, 0x26, 0x5b, 0xbe, 0x53, 0xc1, 0xd6, 0x3e,
  0xe4, 0x94, 0x6f, 0xbe, 0x43, 0x2c, 0x27, 0xbe, 0x39, 0x68, 0xc6, 0x3c,
  0x12, 0x88, 0xc9, 0xbd, 0xa3, 0x79, 0xb3, 0x3e, 0xf7, 0x9a, 0xf1, 0xbe,
  0x79, 0xa7, 0x8e, 0xbe, 0xf5, 0xce, 0x04, 0x3e, 0x8a, 0x7f, 0xcb, 0xbd,
  0x96, 0x2f, 0x6c, 0x3d, 0xd7, 0xf4, 0xbb, 0x3d, 0x3a, 0x67, 0x10, 0x3e,
  0x1a, 0xc4, 0x6a, 0xbd, 0xbd, 0xc1, 0xcb, 0x3d, 0x86, 0x8d, 0x17, 0xbe,
  0x1c, 0x38, 0xb8, 0x3d, 0x5d, 0x23, 0x8c, 0xbe, 0xb5, 0xf9, 0xb5, 0xbe,
  0xdf, 0x69, 0xea, 0xbc, 0x3e, 0x3b, 0xd2, 0x3d, 0x86, 0x41, 0xc0, 0x3e,
  0x32, 0xcc, 0xc8, 0x3e, 0xb7, 0x46, 0x60, 0xbe, 0xef, 0xdc, 0x05, 0xbd,
  0x39, 0xb0, 0x2d, 0xbe, 0x67, 0x26, 0xf9, 0x3d, 0xe9, 0x5b, 0x56, 0xbe,
  0x20, 0x8d, 0x4b, 0x3e, 0x41, 0xef, 0xb6, 0xbe, 0x5b, 0x68, 0x95, 0xbd,
  0x8a, 0x11, 0x13, 0xbe, 0x1a, 0x04, 0xbc, 0xbe, 0x34, 0xa7, 0x88, 0x3d,
  0xb6, 0x7b, 0xeb, 0xbd, 0xfc, 0xcb, 0x30, 0x3e, 0x63, 0xec, 0xb6, 0xbe,
  0x5a, 0x1a, 0xc0, 0xbe, 0x3e, 0xe4, 0xd4, 0xbe, 0x31, 0x47, 0x1b, 0x3c,
  0xcc, 0xd1, 0xe8, 0x3b, 0x35, 0x45, 0x52, 0x3e, 0xd3, 0x8b, 0xde, 0xbe,
  0x4c, 0x01, 0x86, 0xbe, 0x6d, 0x3b, 0x33, 0x3e, 0x95, 0x01, 0x3d, 0xbe,
  0xc8, 0xb5, 0xc4, 0xbe, 0x27, 0xb2, 0x16, 0xbe, 0x4f, 0xac, 0x22, 0xbe,
  0xac, 0xfa, 0x18, 0x3d, 0x4e, 0xcc, 0x85, 0x3e, 0xb0, 0x3f, 0x8e, 0xbe,
  0xbc, 0xb4, 0x7e, 0x3c, 0x2d, 0x55, 0x25, 0xbe, 0xdb, 0xdb, 0x2a, 0x3e,
  0xf9, 0xb0, 0x3e, 0x3e, 0x89, 0xf7, 0x32, 0xbe, 0x68, 0x0b, 0x0e, 0x3e,
  0x01, 0x18, 0x13, 0xbe, 0xcd, 0x6c, 0x59, 0xbe, 0x55, 0xef, 0x12, 0x3e,
  0x08, 0x5e, 0xb4, 0xbd, 0xd8, 0xbe, 0xf9, 0x3c, 0xe5, 0x13, 0xf2, 0xbd,
  0x67, 0x55, 0xe8, 0xbd, 0x65, 0xbd, 0x1f, 0xbd, 0xe0, 0x6f, 0x9e, 0x3e,
  0x1a, 0x02, 0x9c, 0xbe, 0x79, 0xc9, 0x66, 0xbb, 0x33, 0x46, 0xf9, 0xbd,
  0xa6, 0x82, 0x07, 0x3f, 0x1a, 0x84, 0xfa, 0x3d, 0xb6, 0x92, 0xa4, 0xbe,
  0x9a, 0x61, 0x39, 0x3e, 0xcf, 0xbf, 0xfb, 0x3c, 0xaa, 0xa2, 0x9b, 0xbe,
  0xb5, 0xdc, 0x93, 0xbd, 0x53, 0x2b, 0x8e, 0xbc, 0x87, 0xe0, 0xcf, 0xbd,
  0x4a, 0x24, 0x55, 0xbe, 0x63, 0x57, 0x8f, 0x3b, 0xc0, 0x62, 0x86, 0xbc,
  0xbf, 0x44, 0x3f, 0x3e, 0x8d, 0xf1, 0x05, 0xbe, 0x6d, 0x54, 0xe3, 0x3d,
  0x0b, 0xcf, 0x49, 0x3d, 0x3b, 0x30, 0xb2, 0x3e, 0xf7, 0x63, 0xa0, 0x3e,
  0xca, 0x39, 0x22, 0x3e, 0x81, 0x92, 0x8e, 0x3e, 0xaa, 0x1b, 0x07, 0xbe,
  0x18, 0x56, 0xe3, 0xbe, 0xef, 0x8f, 0x8c, 0x3e, 0x43, 0xd7, 0x90, 0x3d,
  0xc3, 0x53, 0xbd, 0xbd, 0x7f, 0x73, 0x42, 0xbe, 0x44, 0xf0, 0x2f, 0xbe,
  0xab, 0xc1, 0xaa, 0xbc, 0x45, 0x7d, 0xdb, 0x3d, 0x42, 0x05, 0xdd, 0xbd,
  0xbe, 0x00, 0xbe, 0xbd, 0xf7, 0xc9, 0x0a, 0xbe, 0x97, 0x03, 0x6b, 0x3e,
  0xd2, 0xaa, 0x71, 0x3e, 0xa7, 0x50, 0xc8, 0xbd, 0xc7, 0x91, 0xbd, 0x3e,
  0xee, 0xcc, 0x27, 0xbd, 0xd6, 0xda, 0x30, 0xbe, 0xb9, 0x71, 0x3a, 0x3e,
  0xc8, 0xb0, 0x47, 0x3e, 0x2e, 0xd8, 0xe6, 0xbc, 0x86, 0xaa, 0xa2, 0xbd,
  0xfc, 0x8e, 0xd9, 0xbe, 0x19, 0x49, 0x12, 0x3b, 0xb0, 0xdf, 0x58, 0x3e,
  0xe0, 0xf0, 0xa4, 0xbe, 0x32, 0x28, 0x6b, 0xbe, 0x84, 0xfb, 0x8d, 0xbd,
  0xae, 0x1b, 0x83, 0x3d, 0x9f, 0x03, 0x86, 0x3e, 0xf6, 0xe8, 0x3c, 0xbe,
  0xd0, 0xcf, 0xcb, 0x3e, 0x71, 0x64, 0x41, 0xbe, 0xc8, 0x2d, 0x3a, 0xbe,
  0xf7, 0x08, 0x88, 0x3e, 0x9f, 0x3e, 0xaa, 0x3d, 0x0b, 0x8d, 0x53, 0xbe,
  0x46, 0x3a, 0xc2, 0x3c, 0x32, 0x3c, 0x7d, 0x3d, 0x47, 0xc3, 0x13, 0xbd,
  0x65, 0xd5, 0xd2, 0x3c, 0x03, 0x3a, 0x42, 0xbb, 0x1d, 0xac, 0x1e, 0xbe,
  0xa6, 0x2a, 0x88, 0x3d, 0x43, 0x94, 0x42, 0x3e, 0x2d, 0x9c, 0x4c, 0x3e,
  0x60, 0xbd, 0x81, 0xbd, 0x11, 0x1d, 0xff, 0xbd, 0xa8, 0xac, 0xde, 0xbd,
  0x38, 0x6b, 0xea, 0xbe, 0xca, 0x38, 0xff, 0xbe, 0x21, 0x20, 0x20, 0x3e,
  0x42, 0x15, 0x43, 0x3e, 0xd9, 0x27, 0x12, 0xbe, 0x1a, 0x8b, 0x46, 0x3e,
  0xe9, 0x0e, 0xf4, 0xbc, 0xe7, 0xb5, 0x29, 0x3e, 0x3f, 0x70, 0x38, 0xbe,
  0x5d, 0x72, 0x05, 0xbf, 0x7f, 0xcb, 0xb3, 0x3e, 0xd3, 0x95, 0x70, 0xbe,
  0xf3, 0x30, 0x3a, 0xbe, 0xd9, 0x47, 0xc3, 0xbe, 0xd4, 0x06, 0xb7, 0xbe,
  0x54, 0xf2, 0x40, 0xbe, 0xbc, 0x37, 0xdd, 0x3e, 0xe7, 0xd4, 0xfa, 0xbe,
  0x16, 0x27, 0x93, 0x3d, 0x4f, 0xd8, 0x8a, 0x3d, 0xd3, 0xe9, 0x14, 0x3e,
  0xb6, 0x31, 0x0b, 0x3e, 0xd9, 0xf6, 0x98, 0x3c, 0xe1, 0xc2, 0x29, 0x3c,
  0x18, 0xdc, 0x41, 0x3e, 0x20, 0xac, 0xbc, 0x3d, 0xf1, 0x3f, 0x03, 0x3e,
  0x29, 0x0b, 0xdf, 0x3d, 0xaf, 0xe9, 0xc4, 0xbd, 0x93, 0xef, 0x25, 0x3e,
  0x2a, 0x9c, 0x9b, 0xbe, 0xdd, 0xbc, 0x5b, 0xbd, 0x40, 0x11, 0xfe, 0x3e,
  0x5f, 0x55, 0xeb, 0xbc, 0xfb, 0x90, 0xde, 0x3c, 0x5e, 0x24, 0x82, 0x3d,
  0x22, 0xe7, 0x69, 0x3e, 0x8c, 0xcd, 0x77, 0x3d, 0xc1, 0xbf, 0x94, 0x3d,
  0xd4, 0xd9, 0x6f, 0xbe, 0x6a, 0x04, 0x96, 0x3d, 0x0e, 0x54, 0xc2, 0x3d,
  0xd6, 0x78, 0xbe, 0x3d, 0x35, 0xc1, 0x99, 0xbe, 0x19, 0x33, 0x93, 0xbe,
  0x88, 0xac, 0xf7, 0x3e, 0xe7, 0x7c, 0xa8, 0xbe, 0x1f, 0x2e, 0x82, 0x3d,
  0xdf, 0x1e, 0x08, 0x3f, 0x6a, 0xe2, 0xfd, 0xbc, 0x9f, 0x79, 0xd0, 0x3d,
  0x23, 0xd4, 0x65, 0x3d, 0x2e, 0xb0, 0xcd, 0x3d, 0xd7, 0x69, 0x3a, 0xbd,
  0xb1, 0xfe, 0x86, 0x3d, 0xd0, 0x62, 0x9c, 0xbd, 0x41, 0x29, 0xde, 0x3d,
  0xb9, 0x92, 0x0c, 0x3e, 0x2b, 0xf1, 0x38, 0x3e, 0xbc, 0x10, 0x85, 0xbe,
  0xf8, 0x8c, 0x2d, 0xbe, 0xcd, 0xa3, 0x0f, 0x3e, 0xed, 0x17, 0xa0, 0xbe,
  0xfc, 0x25, 0xd1, 0x3d, 0xf1, 0x73, 0x51, 0x3d, 0x10, 0xdc, 0x32, 0xbe,
  0xc5, 0x70, 0x6e, 0x3d, 0x8a, 0x0a, 0x40, 0x3d, 0xc6, 0xeb, 0xa3, 0x3d,
  0x9e, 0x65, 0x49, 0x3d, 0x55, 0xb0, 0x5f, 0x3d, 0x62, 0x23, 0xe4, 0xbd,
  0xeb, 0x16, 0x41, 0x3e, 0x99, 0x4a, 0x23, 0x3d, 0x84, 0x0f, 0xe7, 0x3d,
  0xb7, 0x92, 0xbc, 0xbe, 0xef, 0x13, 0x17, 0xbe, 0x9c, 0x5c, 0xf7, 0xbd,
  0x91, 0x4d, 0x99, 0xbe, 0x8c, 0x6f, 0x39, 0x3e, 0x8c, 0x58, 0xa2, 0xbc,
  0x32, 0x61, 0x07, 0xbe, 0x54, 0xc4, 0xa4, 0xbd, 0xf1, 0x62, 0xb3, 0xbb,
  0x75, 0xc4, 0x7e, 0x3e, 0xad, 0x17, 0x95, 0x3e, 0xcb, 0x24, 0x1f, 0x3d,
  0xb6, 0x62, 0x88, 0xbe, 0x6e, 0x54, 0xa3, 0xbd, 0x67, 0xe0, 0xcb, 0xbd,
  0xec, 0x55, 0xca, 0x3e, 0x66, 0x25, 0x8e, 0xbe, 0x3a, 0x2c, 0xbe, 0xbe,
  0xf2, 0xd9, 0x4e, 0xbe, 0x31, 0x0b, 0x05, 0xbf, 0x09, 0xec, 0xe6, 0x3c,
  0x50, 0xe5, 0x86, 0xbe, 0x22, 0xe7, 0x7b, 0xbe, 0x22, 0xb5, 0x6d, 0xbe,
  0x3e, 0x88, 0xae, 0xbe, 0xdc, 0x86, 0xaa, 0xbd, 0x57, 0xec, 0x2d, 0x3e,
  0x81, 0x37, 0x6e, 0xbd, 0xdb, 0x6e, 0x40, 0xbd, 0xa9, 0xd8, 0x1a, 0xbd,
  0xa0, 0xaf, 0xd3, 0xbd, 0xcb, 0x41, 0x51, 0x3e, 0x48, 0x53, 0x12, 0x3f,
  0xae, 0x6f, 0xed, 0xbd, 0xc6, 0x58, 0x05, 0xbe, 0xc0, 0x09, 0xc0, 0xbc,
  0x4a, 0x04, 0xdc, 0xbd, 0x2f, 0x87, 0x69, 0x3e, 0x38, 0xbe, 0x0f, 0x3e,
  0x40, 0x35, 0x10, 0xbe, 0x18, 0x35, 0xae, 0xbe, 0xbc, 0x27, 0x1d, 0xbc,
  0x7e, 0x94, 0x24, 0xbe, 0x73, 0xe7, 0xb6, 0x3d, 0x15, 0xc9, 0x06, 0x3c,
  0x3a, 0x96, 0xd8, 0xbd, 0x6f, 0xd1, 0xa1, 0x3e, 0x25, 0xef, 0x20, 0xbe,
  0xa8, 0xf2, 0x09, 0x3f, 0xfb, 0x0d, 0x1f, 0x3d, 0x4c, 0x3f, 0x24, 0x3e,
  0xd0, 0x92, 0x13, 0xbe, 0x62, 0x55, 0x64, 0x3e, 0x1c, 0x7c, 0x03, 0xbf,
  0xbc, 0x37, 0x0b, 0xbd, 0x83, 0x86, 0x89, 0x3d, 0x7f, 0xb0, 0x40, 0xbe,
  0xdf, 0xbe, 0x0b, 0xbe, 0x32, 0x35, 0x46, 0xbe, 0xbd, 0xeb, 0xb6, 0xbc,
  0xfc, 0x45, 0xb0, 0xbe, 0xb9, 0x7e, 0xd5, 0xbc, 0x09, 0x5f, 0xae, 0xbd,
  0xbd, 0x8c, 0x3e, 0x3e, 0xa3, 0x66, 0x00, 0xbe, 0x23, 0xb2, 0x0d, 0xbf,
  0x3d, 0x13, 0x89, 0xbd, 0xc9, 0x57, 0x78, 0x3d, 0x7f, 0xd8, 0x9b, 0xbd,
  0xd6, 0x80, 0x8d, 0xbe, 0x27, 0x15, 0x3f, 0xbe, 0x1b, 0xd3, 0x7f, 0x3b,
  0x6e, 0x79, 0x01, 0x3e, 0x89, 0x8d, 0x60, 0x3e, 0x15, 0xdd, 0xa3, 0xbe,
  0x88, 0x25, 0x7e, 0xbc, 0x0e, 0x13, 0x0a, 0xbf, 0x26, 0x48, 0x8b, 0xbe,
  0x41, 0x5d, 0xa6, 0x3d, 0xb1, 0x97, 0x9b, 0x3d, 0x54, 0x1b, 0xb2, 0x3d,
  0x54, 0xfa, 0xd7, 0xbe, 0x20, 0x3a, 0x43, 0xbf, 0x4b, 0x8d, 0xdc, 0x3d,
  0xd7, 0xb3, 0x39, 0xbe, 0x89, 0x3b, 0xca, 0xbe, 0x1a, 0x4b, 0xe3, 0xbe,
  0x7a, 0x02, 0xe4, 0x3d, 0x52, 0xff, 0x04, 0x3e, 0xaa, 0xb2, 0x6e, 0x3e,
  0x46, 0x9d, 0x0b, 0xbe, 0x75, 0x7a, 0x60, 0xbd, 0x4b, 0xac, 0x98, 0xbe,
  0xfb, 0x29, 0x8b, 0xbe, 0xdf, 0xf0, 0x34, 0xbe, 0xe2, 0x6c, 0x03, 0xbe,
  0xcd, 0x59, 0x51, 0xbe, 0x04, 0xfd, 0x04, 0xbf, 0xb7, 0xe8, 0x4e, 0xbf,
  0x80, 0x52, 0x95, 0xbe, 0x3b, 0x0f, 0x4f, 0xbe, 0x68, 0x4b, 0x64, 0x3c,
  0xcc, 0xd6, 0x8a, 0xbc, 0xae, 0x3c, 0x8a, 0x3d, 0x17, 0x70, 0x58, 0x3e,
  0xd3, 0x77, 0xb4, 0x3d, 0x74, 0xde, 0x9a, 0xbe, 0x02, 0xcb, 0xad, 0xbc,
  0xca, 0x81, 0xae, 0x3d, 0x82, 0x8a, 0xac, 0xbe, 0x65, 0x0a, 0xd4, 0x3e,
  0xad, 0x4d, 0xb9, 0xbe, 0x40, 0x5c, 0x61, 0x3e, 0xbe, 0xde, 0xd7, 0x3d,
  0x1a, 0xa4, 0xcf, 0xbb, 0x01, 0x9c, 0xfa, 0xbc, 0x4d, 0xb7, 0xc4, 0x3b,
  0xaf, 0x65, 0x76, 0x3c, 0x5e, 0x8d, 0x94, 0x3d, 0x6d, 0x31, 0xd4, 0xbd,
  0x58, 0xf0, 0x80, 0xbc, 0x2b, 0x14, 0x0a, 0x3e, 0xf8, 0x60, 0x66, 0xbe,
  0x34, 0x85, 0xff, 0x3b, 0x8b, 0xc2, 0x5e, 0x3d, 0xe3, 0x1f, 0x70, 0xbe,
  0xcf, 0x46, 0xab, 0x3e, 0x01, 0x6a, 0x66, 0xbe, 0xc0, 0xe7, 0x41, 0x3f,
  0xaf, 0x13, 0x1b, 0x3e, 0x26, 0x22, 0x59, 0x3d, 0x15, 0x07, 0x1f, 0x3d,
  0x2d, 0x16, 0x3b, 0x3e, 0x9e, 0x95, 0x43, 0xbe, 0xff, 0x86, 0x1b, 0x3d,
  0xc0, 0xa1, 0x9b, 0xbd, 0x78, 0xb6, 0x48, 0xbe, 0x69, 0x1c, 0x3c, 0x3d,
  0x60, 0x7a, 0x22, 0xbd, 0xd9, 0x4a, 0x1b, 0xbd, 0xa2, 0x7c, 0x0d, 0x3c,
  0x5b, 0xa4, 0x0d, 0x3c, 0x94, 0x81, 0x50, 0xbe, 0x28, 0x10, 0x8d, 0xbe,
  0xb7, 0x77, 0x65, 0xbe, 0x13, 0x84, 0xa8, 0xbd, 0x5f, 0xb3, 0xc9, 0xbd,
  0xf7, 0x1e, 0xae, 0x3c, 0x10, 0x3a, 0x92, 0xbd, 0xec, 0x6c, 0x6f, 0xbe,
  0xc2, 0x33, 0x9d, 0xbd, 0x9f, 0xbd, 0x82, 0x3d, 0x0e, 0x7f, 0x64, 0xbe,
  0x81, 0x73, 0x18, 0xbe, 0x9d, 0x80, 0x3e, 0x3e, 0x6c, 0x68, 0x93, 0xbe,
  0x24, 0x9d, 0x7e, 0x3d, 0x6e, 0x44, 0xca, 0xbe, 0x05, 0x22, 0x34, 0x3b,
  0x84, 0x95, 0x71, 0xbd, 0xa9, 0x02, 0x30, 0xbe, 0xc2, 0xff, 0x00, 0xbe,
  0x27, 0x04, 0xef, 0xbe, 0xbf, 0x2e, 0x53, 0xbe, 0xcc, 0x80, 0x1f, 0xbe,
  0xc3, 0x96, 0xd5, 0x3d, 0x50, 0x61, 0x35, 0xbd, 0xb6, 0x6a, 0x9e, 0xbd,
  0xe9, 0x92, 0xaa, 0xbe, 0x21, 0x47, 0x85, 0xbe, 0x68, 0x3a, 0xcd, 0x3d,
  0xd3, 0xbc, 0x8b, 0xbe, 0xd5, 0xcc, 0x81, 0x3e, 0xbb, 0x6b, 0xa2, 0xbd,
  0x06, 0xc1, 0x4e, 0x3e, 0x1b, 0xf3, 0xba, 0xbe, 0x54, 0x9a, 0x29, 0x3e,
  0x87, 0x37, 0xbf, 0xbd, 0x5b, 0xef, 0xbb, 0x3d, 0x25, 0xe6, 0x19, 0xbe,
  0xa7, 0x07, 0xf6, 0x3d, 0x88, 0x92, 0x22, 0x3e, 0x85, 0x23, 0x72, 0xbd,
  0x3f, 0x00, 0xad, 0xbb, 0xe6, 0x0b, 0xca, 0xbe, 0x35, 0x0e, 0x4c, 0xbe,
  0xb4, 0xd7, 0x9d, 0x3d, 0x0d, 0xac, 0x7c, 0xbe, 0xe3, 0x95, 0x57, 0x3e,
  0x75, 0xe6, 0xca, 0xbe, 0x8e, 0xaa, 0xbd, 0x3d, 0x9f, 0xba, 0xa7, 0xbd,
  0x23, 0x04, 0x17, 0xbe, 0x0a, 0x6e, 0x07, 0xbe, 0x2c, 0xb4, 0xf2, 0xbd,
  0xc6, 0x01, 0xca, 0xbd, 0x16, 0xa2, 0x01, 0x3e, 0xdf, 0x68, 0xc4, 0xbe,
  0x0e, 0x91, 0x68, 0xbe, 0xc9, 0xe9, 0x37, 0x3e, 0x93, 0xea, 0xd7, 0x3d,
  0x0e, 0x39, 0x89, 0x3c, 0xba, 0x8e, 0x23, 0xbe, 0x57, 0x96, 0x8d, 0xbe,
  0xf2, 0x29, 0x99, 0xbd, 0x8f, 0x59, 0xb4, 0xbe, 0xba, 0x5d, 0x14, 0xbe,
  0x38, 0xd0, 0x53, 0xbd, 0x1c, 0x68, 0x79, 0xbe, 0x45, 0xa1, 0x0f, 0xbf,
  0xe9, 0x95, 0xc8, 0xbe, 0xab, 0x52, 0x8e, 0xbe, 0xdb, 0xff, 0x34, 0xbc,
  0x5b, 0xbc, 0x43, 0x3e, 0x50, 0xc2, 0x20, 0x3c, 0x85, 0x6d, 0xa5, 0x3d,
  0x44, 0x9a, 0x84, 0x3e, 0x33, 0x57, 0x70, 0x3e, 0x33, 0x33, 0x6c, 0xbd,
  0xf5, 0x0d, 0x61, 0xbe, 0xfb, 0x24, 0xbd, 0x3d, 0xcd, 0x92, 0x2f, 0xbe,
  0x64, 0x8e, 0x52, 0x3e, 0x36, 0x59, 0x49, 0x3d, 0x18, 0xdc, 0x20, 0x3e,
  0xda, 0xbc, 0x25, 0x3e, 0x30, 0x35, 0x51, 0x3d, 0x96, 0x56, 0x89, 0xbe,
  0x06, 0x45, 0x95, 0x3c, 0xec, 0xb9, 0x04, 0x3e, 0xe6, 0x1a, 0x1f, 0xbe,
  0x76, 0x85, 0x8a, 0x3e, 0xbb, 0x85, 0x81, 0x3e, 0xfb, 0x88, 0x4a, 0x3e,
  0x20, 0x0c, 0x25, 0xbe, 0x62, 0x34, 0x2f, 0xbe, 0x28, 0xba, 0x60, 0x3d,
  0x02, 0x3f, 0xcc, 0xbe, 0x11, 0xb6, 0x0d, 0x3e, 0x28, 0xbc, 0xf9, 0xbd,
  0x5c, 0xd9, 0x92, 0x3e, 0x58, 0x50, 0x8a, 0x3d, 0xdd, 0x31, 0xd1, 0x3d,
  0x13, 0xe2, 0x01, 0xbe, 0x10, 0xdd, 0x1b, 0x3e, 0xed, 0xe8, 0x48, 0x3d,
  0x4f, 0x01, 0xe7, 0xbd, 0x5e, 0xc1, 0x70, 0x3e, 0xaa, 0x5d, 0xc9, 0x3e,
  0x22, 0x05, 0xa3, 0x3e, 0x63, 0x22, 0xd0, 0xbd, 0xfb, 0xa3, 0x9c, 0x3d,
  0xd9, 0x19, 0xad, 0x3d, 0xbc, 0xa6, 0x16, 0xbe, 0x35, 0x76, 0xc2, 0x3e,
  0x96, 0xc6, 0x25, 0x3e, 0x96, 0x93, 0xac, 0x3e, 0xb5, 0x3e, 0x08, 0x3d,
  0x7a, 0x61, 0x4a, 0xbd, 0xf9, 0xfb, 0xb7, 0x3c, 0xeb, 0x55, 0xbf, 0x3d,
  0x4b, 0x3e, 0x38, 0xbe, 0x43, 0x2d, 0x60, 0x3e, 0x57, 0xeb, 0xaa, 0xbe,
  0x9e, 0xa2, 0x91, 0xbb, 0x3f, 0x5d, 0x2c, 0x3c, 0x4e, 0xa2, 0xa4, 0xbe,
  0x07, 0xa8, 0x13, 0xbc, 0x02, 0xa0, 0xaf, 0xbd, 0x0e, 0xff, 0x46, 0x3e,
  0xfa, 0x09, 0x2c, 0xbe, 0x0a, 0x07, 0x1c, 0xbe, 0xe4, 0x71, 0xf4, 0xbe,
  0xcc, 0x55, 0x94, 0x3d, 0x5f, 0x68, 0xd4, 0xbd, 0x0c, 0x64, 0x2a, 0x3e,
  0x75, 0x82, 0xbc, 0xbe, 0x8a, 0xab, 0x9b, 0xbe, 0x46, 0x1e, 0x8e, 0x3e,
  0x34, 0x0f, 0xd8, 0xbe, 0x3a, 0x39, 0x46, 0xbd, 0xfa, 0xe2, 0xc0, 0xbe,
  0x52, 0xe6, 0x85, 0xbe, 0x28, 0xa9, 0x27, 0x3d, 0xf3, 0x28, 0x8d, 0x3e,
  0x11, 0x3a, 0xb0, 0xbe, 0x60, 0xe1, 0x98, 0x3d, 0x68, 0xab, 0x0f, 0xbe,
  0x67, 0x9b, 0x84, 0xbe, 0xf6, 0x7f, 0x97, 0x3e, 0xe9, 0x31, 0xc0, 0xbe,
  0x43, 0x29, 0x36, 0x3e, 0x61, 0x09, 0x80, 0xbe, 0xce, 0x58, 0xae, 0xbe,
  0x62, 0x8a, 0x1a, 0x3e, 0xa2, 0x90, 0xaf, 0x3d, 0xa7, 0xe7, 0xb4, 0xbd,
  0xf7, 0x98, 0x4e, 0xbe, 0x70, 0x25, 0xe5, 0x3c, 0xdb, 0xcb, 0xd4, 0xbc,
  0xff, 0x87, 0xbc, 0x3e, 0x52, 0x4a, 0xf4, 0xbe, 0x18, 0x41, 0xa0, 0x3d,
  0x8c, 0x29, 0x0c, 0xbe, 0xc9, 0x2c, 0x81, 0xbd, 0x52, 0x55, 0xe2, 0x3e,
  0x09, 0xbe, 0x0f, 0xbd, 0x4f, 0xe3, 0x8a, 0xbd, 0x55, 0xc5, 0xae, 0x3d,
  0x75, 0x3d, 0xdc, 0xbe, 0x0b, 0x43, 0x71, 0xbe, 0x9b, 0x7e, 0x7d, 0x3c,
  0x64, 0x11, 0xc7, 0xbd, 0xa4, 0x8c, 0x90, 0xbe, 0xcb, 0x8c, 0xbe, 0x3c,
  0x92, 0x5c, 0x2b, 0xbd, 0xf3, 0xf6, 0x74, 0x3e, 0x90, 0x80, 0x46, 0xbe,
  0x3e, 0x61, 0x7d, 0xbd, 0xb9, 0x95, 0xf8, 0xbd, 0x61, 0x25, 0x68, 0x3d,
  0x92, 0x6f, 0x8d, 0x3e, 0x4a, 0xe2, 0x12, 0xbe, 0x58, 0x68, 0x84, 0x3e,
  0x06, 0x55, 0x0c, 0xbc, 0x21, 0x51, 0x35, 0xbf, 0x7f, 0x5d, 0xfd, 0x3d,
  0x97, 0x95, 0x1c, 0x3c, 0xbb, 0x9b, 0x7b, 0xbe, 0x75, 0x29, 0xa5, 0xbe,
  0xcb, 0x5d, 0x1d, 0xbe, 0xbd, 0x2d, 0x1d, 0xbc, 0xb6, 0x8c, 0x32, 0x3d,
  0x4d, 0x28, 0xb4, 0xbe, 0x89, 0xe4, 0x3f, 0xbe, 0x9b, 0xc0, 0x8e, 0xbd,
  0xc2, 0xb8, 0xbb, 0x3d, 0x82, 0xed, 0xb0, 0x3e, 0xb6, 0xa5, 0xae, 0xbe,
  0x9b, 0x9a, 0x83, 0x3e, 0x66, 0x01, 0x55, 0xbd, 0x5f, 0x12, 0xd2, 0xbe,
  0xda, 0xf7, 0x16, 0xbd, 0x4c, 0xaf, 0x28, 0x3e, 0xa7, 0x5b, 0xdb, 0xba,
  0x3c, 0xf2, 0xa6, 0xbe, 0x9f, 0x56, 0xc2, 0xbe, 0x9c, 0x9d, 0x94, 0x3c,
  0x89, 0x9f, 0x5c, 0x3e, 0x84, 0x34, 0xb0, 0x3e, 0xc4, 0x4a, 0xbd, 0xbe,
  0xe9, 0x20, 0xdf, 0xbd, 0x9e, 0x5d, 0x85, 0xbe, 0x26, 0x23, 0x61, 0x3e,
  0xdd, 0xb4, 0x22, 0xbe, 0x86, 0x01, 0xa6, 0x3e, 0x9c, 0x41, 0x88, 0xbe,
  0x04, 0x24, 0xdc, 0x3d, 0x34, 0xee, 0x97, 0x3e, 0xae, 0x6f, 0x4c, 0xbd,
  0x92, 0x7d, 0x3a, 0xbe, 0x66, 0xb6, 0xff, 0x3c, 0x9b, 0x47, 0x31, 0xbd,
  0xeb, 0x99, 0x4a, 0xbc, 0xfe, 0xe7, 0xba, 0x3c, 0xd5, 0x1a, 0x6c, 0xbe,
  0x18, 0x4f, 0x3a, 0x3c, 0xd0, 0x17, 0x5e, 0xbe, 0x59, 0x2f, 0xf4, 0xbd,
  0x0f, 0x4b, 0x80, 0x3c, 0x5e, 0x1c, 0xa9, 0xbc, 0x4d, 0x04, 0xde, 0x3d,
  0xfc, 0xb2, 0xfc, 0xbd, 0xd2, 0xc3, 0xbd, 0xbd, 0x04, 0x22, 0x89, 0xbd,
  0x40, 0xad, 0x00, 0xbe, 0xea, 0x75, 0x61, 0xbe, 0x2b, 0x26, 0x11, 0x3e,
  0x3a, 0xcd, 0xb6, 0xbb, 0xea, 0x30, 0x95, 0xbe, 0x42, 0xaa, 0xb1, 0xbe,
  0x8a, 0xff, 0x7b, 0x3e, 0x12, 0xca, 0x6a, 0x3d, 0x6e, 0x52, 0xc6, 0x3e,
  0x05, 0x35, 0xa2, 0x3e, 0xa9, 0x99, 0x4e, 0xbd, 0x20, 0x56, 0x18, 0xbe,
  0x21, 0x69, 0xbe, 0x3e, 0x08, 0xbd, 0x1e, 0xbe, 0x75, 0x89, 0x00, 0xbe,
  0x17, 0x5d, 0xdd, 0x3c, 0x2e, 0x82, 0xa4, 0xbd, 0xe2, 0xf7, 0x37, 0x3e,
  0x1c, 0x89, 0x2d, 0xbe, 0xcc, 0x73, 0x8f, 0xbd, 0x61, 0xd0, 0x8e, 0xbe,
  0xfe, 0xcc, 0x95, 0x3e, 0x8d, 0x2e, 0x86, 0xbe, 0xa8, 0x4f, 0x94, 0x3d,
  0x54, 0xd5, 0x69, 0x3e, 0xd0, 0x38, 0x2a, 0x3f, 0x40, 0xf5, 0xa5, 0x3c,
  0x1f, 0x29, 0xb7, 0x3d, 0x97, 0xdc, 0x61, 0x3e, 0x9f, 0x4a, 0xf6, 0xbd,
  0x79, 0x4e, 0x41, 0xbd, 0xc8, 0xe9, 0x53, 0x3d, 0xa6, 0xe3, 0x8f, 0xbd,
  0x38, 0x97, 0x22, 0x3e, 0x44, 0xd5, 0x0c, 0xbe, 0x4f, 0x44, 0xa5, 0xbd,
  0xf1, 0x76, 0xba, 0xbe, 0xb0, 0x00, 0x2c, 0x3e, 0x03, 0x59, 0xfd, 0xbb,
  0x3c, 0x83, 0x4b, 0x3e, 0x16, 0xac, 0x0c, 0x3e, 0x6f, 0x6a, 0x36, 0x3f,
  0x10, 0x0d, 0x8a, 0x3e, 0x03, 0xda, 0x09, 0xbe, 0x77, 0x9f, 0x35, 0x3e,
  0xc0, 0xca, 0x8c, 0xbd, 0x66, 0xcb, 0xda, 0xbd, 0xf6, 0x7f, 0xc0, 0x3d,
  0x97, 0xcf, 0x14, 0x3d, 0x71, 0x5f, 0x3c, 0xbe, 0x07, 0xdc, 0x0f, 0x3e,
  0x6e, 0x74, 0x62, 0xbd, 0x91, 0xb1, 0x84, 0xbe, 0x12, 0x2e, 0xe1, 0x3d,
  0x5f, 0xe9, 0x96, 0xbd, 0x19, 0x0c, 0xe9, 0xbd, 0x94, 0x9d, 0x08, 0x3e,
  0x0a, 0xe3, 0x66, 0x3f, 0xc3, 0x2e, 0x4b, 0xbd, 0x62, 0xb3, 0x16, 0x3e,
  0xd0, 0x8b, 0x9d, 0xbd, 0x19, 0xbd, 0x8a, 0x3d, 0x75, 0x14, 0x2d, 0xbe,
  0x1a, 0x61, 0xc4, 0xbd, 0x97, 0x3d, 0x1e, 0xbe, 0xb9, 0x87, 0xc3, 0x3b,
  0x2d, 0x00, 0x16, 0xbe, 0x58, 0x52, 0x1a, 0x3d, 0xe0, 0x08, 0x21, 0xbe,
  0x6f, 0xc7, 0xbd, 0xbd, 0x17, 0x95, 0x31, 0x3d, 0x98, 0x5c, 0x1f, 0xbe,
  0x71, 0xcb, 0x67, 0x3e, 0xe5, 0x2b, 0x3c, 0x3f, 0x2b, 0x0b, 0x1a, 0xbe,
  0xd6, 0x61, 0x6f, 0x3d, 0x81, 0x45, 0x62, 0xbe, 0xdd, 0x4f, 0x0a, 0xbd,
  0x28, 0xfa, 0x0b, 0xbd, 0x98, 0xd1, 0x4b, 0xbe, 0x52, 0x6d, 0xfd, 0xbd,
  0xf6, 0xa4, 0x13, 0xbe, 0xd6, 0x46, 0x46, 0xbd, 0xad, 0xf5, 0xe7, 0xbc,
  0xc1, 0xec, 0x6d, 0xbe, 0xe5, 0xb9, 0xf0, 0xbd, 0xae, 0x2a, 0x27, 0xbd,
  0x47, 0x80, 0xc3, 0x3d, 0x6a, 0xf1, 0x24, 0x3e, 0x49, 0x13, 0xd4, 0x3e,
  0xf2, 0x54, 0x09, 0xbd, 0xab, 0x88, 0x4a, 0xbe, 0xce, 0xef, 0x14, 0x3d,
  0x8f, 0x27, 0x0e, 0xbe, 0x6a, 0x6c, 0x36, 0xbe, 0x32, 0x43, 0xf8, 0xbd,
  0x93, 0x92, 0xa0, 0x3d, 0xde, 0x1c, 0x21, 0x3d, 0xf8, 0xe8, 0x12, 0xbd,
  0xe7, 0x4b, 0xeb, 0x3d, 0xba, 0xd1, 0x42, 0xbe, 0x9c, 0x00, 0xb1, 0xbc,
  0xe4, 0x76, 0xcd, 0xbc, 0xbe, 0xe0, 0x2e, 0x3c, 0xa9, 0xdf, 0x98, 0x3c,
  0x81, 0xc1, 0x91, 0x3e, 0x5f, 0x7a, 0x84, 0xbe, 0xd0, 0xde, 0x24, 0xbe,
  0x87, 0x09, 0x87, 0xbd, 0x85, 0x9e, 0x9c, 0x3d, 0x85, 0x5a, 0x93, 0xbe,
  0x6a, 0xb2, 0x3b, 0x3e, 0x4c, 0xeb, 0x9c, 0xbe, 0xbb, 0x79, 0x1c, 0x3d,
  0x9a, 0x40, 0xbb, 0x3d, 0x3d, 0x97, 0xef, 0xbd, 0xcd, 0x38, 0x5c, 0xbd,
  0x36, 0x19, 0x03, 0xbd, 0x83, 0xf5, 0xa1, 0x3d, 0x88, 0x33, 0x25, 0xbe,
  0x79, 0x82, 0xca, 0xbd, 0x24, 0x95, 0x5e, 0xbe, 0x3d, 0x7a, 0x8f, 0xbd,
  0x1e, 0x85, 0x24, 0xbe, 0x7b, 0x7d, 0xf7, 0x3d, 0x6e, 0x18, 0xc1, 0xbe,
  0x39, 0xbc, 0x6b, 0xbe, 0x11, 0x2c, 0x87, 0x3d, 0x9c, 0x12, 0xd8, 0xbe,
  0xa9, 0x21, 0x96, 0xbe, 0xb8, 0xf0, 0x56, 0xbe, 0xd2, 0x2c, 0x2a, 0xbe,
  0xd8, 0xe8, 0xbd, 0xbd, 0x1d, 0x93, 0x81, 0x3e, 0xf9, 0xf3, 0x86, 0xbd,
  0xf9, 0x82, 0x7c, 0x3d, 0x91, 0xe0, 0x0c, 0x3b, 0x3c, 0xef, 0xc7, 0xbd,
  0xb4, 0xca, 0x08, 0x3e, 0xe2, 0x1d, 0x7a, 0xbe, 0x59, 0x75, 0x9e, 0x3d,
  0x83, 0x4d, 0x98, 0xbe, 0x0b, 0xaa, 0x81, 0xbe, 0x08, 0xb8, 0x15, 0x3d,
  0x72, 0x24, 0x25, 0xbc, 0xd1, 0x6e, 0xfd, 0xbc, 0x44, 0x2b, 0x03, 0xbe,
  0x45, 0x2d, 0xda, 0x3d, 0x04, 0x8a, 0x2c, 0xbd, 0xc4, 0xcc, 0xa8, 0x3e,
  0x92, 0x1d, 0xfb, 0xbd, 0x1b, 0x16, 0xdd, 0xbd, 0x2b, 0xf2, 0x83, 0xbe,
  0x57, 0xf4, 0x83, 0x3d, 0xff, 0x4a, 0xac, 0x3e, 0x20, 0x22, 0xb5, 0x3c,
  0x25, 0xa9, 0x06, 0x3e, 0xca, 0x13, 0x72, 0xbd, 0xe5, 0xa4, 0x9a, 0xbe,
  0xbd, 0xa5, 0x15, 0x3e, 0x4f, 0xe1, 0x06, 0xbe, 0x88, 0x00, 0x8d, 0xbe,
  0xd2, 0x82, 0xb5, 0xbe, 0x70, 0x5c, 0x10, 0xbb, 0xb4, 0xff, 0x31, 0xbd,
  0x31, 0x80, 0xbe, 0x3e, 0x46, 0xe4, 0xe4, 0xbd, 0xc9, 0x4c, 0x55, 0xbd,
  0xc3, 0xcb, 0xbd, 0xbd, 0x8c, 0xdc, 0x35, 0x3d, 0x1e, 0x84, 0xac, 0x3e,
  0xee, 0x44, 0x4c, 0x3e, 0xc3, 0xfd, 0x86, 0x3e, 0xd2, 0x36, 0xcf, 0xbd,
  0xb5, 0x14, 0x0d, 0xbf, 0x7b, 0xa6, 0x99, 0x3e, 0x88, 0x65, 0xff, 0xbd,
  0xcf, 0xe6, 0x62, 0xbe, 0xec, 0x71, 0x00, 0xbf, 0x21, 0x17, 0x23, 0xbe,
  0xf9, 0xf3, 0x97, 0xbc, 0x4b, 0xb3, 0x67, 0x3d, 0xff, 0xd0, 0x47, 0xbd,
  0xe7, 0xd1, 0x41, 0xbe, 0xf1, 0xa1, 0x10, 0xbd, 0x3b, 0xd6, 0x88, 0x3e,
  0x95, 0x96, 0x69, 0x3e, 0xfa, 0xb0, 0x44, 0xbe, 0xdc, 0x1b, 0xa4, 0x3e,
  0x0b, 0x19, 0x15, 0xbd, 0x07, 0x58, 0xa6, 0xbe, 0xdf, 0xfc, 0x3b, 0x3e,
  0x99, 0x5c, 0x99, 0x3d, 0xc5, 0x34, 0x4f, 0xbe, 0x1b, 0x05, 0x93, 0xbe,
  0x53, 0xd3, 0x5e, 0xbe, 0xdf, 0x75, 0x2d, 0xbd, 0xfc, 0x84, 0x1f, 0x3e,
  0x06, 0x0d, 0x3a, 0x3e, 0x19, 0xc2, 0x95, 0xbe, 0xab, 0x82, 0xff, 0xbb,
  0x71, 0xdc, 0x8d, 0xbd, 0xe0, 0xdb, 0xd3, 0x3d, 0x52, 0x6b, 0x9f, 0xbd,
  0x06, 0x7c, 0x32, 0x3e, 0xd0, 0x43, 0xc7, 0xbe, 0xf7, 0x34, 0x32, 0xbd,
  0x6e, 0x2d, 0x35, 0x3e, 0x56, 0x2b, 0x86, 0x3d, 0x29, 0xf7, 0x7d, 0xbe,
  0xac, 0x4c, 0xf9, 0xbd, 0xd8, 0x12, 0x10, 0x3c, 0x23, 0xe3, 0xef, 0x3d,
  0xf1, 0x39, 0x06, 0x3e, 0x10, 0x10, 0x85, 0x3d, 0x38, 0xd3, 0x16, 0xbe,
  0xfa, 0x0f, 0xa9, 0x3c, 0x26, 0xb3, 0xb4, 0xbe, 0x98, 0x76, 0xd7, 0x3d,
  0xa0, 0x2e, 0x33, 0xbd, 0x7b, 0x6f, 0xbd, 0x3d, 0x81, 0x18, 0x1a, 0xbe,
  0x76, 0x4d, 0x9d, 0xbc, 0x92, 0x21, 0x8b, 0x3d, 0x11, 0xaf, 0x6e, 0xbd,
  0x03, 0x4e, 0x90, 0x3d, 0xec, 0x74, 0xa8, 0x3d, 0x4f, 0xde, 0xc0, 0xbd,
  0x58, 0x63, 0xd5, 0xbd, 0xa7, 0xca, 0xe7, 0x3c, 0x63, 0x9f, 0x7f, 0x3b,
  0xd5, 0x27, 0xa4, 0x3e, 0x5d, 0x87, 0x59, 0xbc, 0xba, 0x4f, 0x45, 0x3e,
  0x2c, 0xb6, 0xef, 0x3d, 0xc7, 0x85, 0x4f, 0x3e, 0x6f, 0x44, 0xa7, 0x3b,
  0xef, 0x3e, 0xc6, 0x3d, 0x0c, 0xde, 0x5a, 0xbe, 0x46, 0x4f, 0x90, 0x3d,
  0xc3, 0x90, 0x3d, 0x3e, 0x47, 0x05, 0x32, 0xbe, 0xc2, 0xbb, 0xa1, 0xbd,
  0xf4, 0xdf, 0xd0, 0xbd, 0x8b, 0xe7, 0x0a, 0xbe, 0x16, 0x24, 0x4d, 0xbe,
  0x03, 0x65, 0xe2, 0xbd, 0xb2, 0x37, 0x08, 0xbe, 0xe1, 0x41, 0x65, 0xbe,
  0x9d, 0xf6, 0x3b, 0xbd, 0xae, 0x38, 0x07, 0xbe, 0x5a, 0x07, 0xa2, 0x3d,
  0xb3, 0x88, 0x03, 0x3e, 0xb5, 0xdd, 0x54, 0x3d, 0x4d, 0x39, 0xa7, 0xbe,
  0x16, 0xbe, 0x19, 0xbe, 0xac, 0xa0, 0x26, 0xbd, 0x15, 0x35, 0xad, 0x3d,
  0x8a, 0xd5, 0xa7, 0x3d, 0x09, 0x13, 0xdb, 0xbc, 0x00, 0x43, 0xe7, 0xbd,
  0x05, 0xb1, 0xa4, 0xbe, 0xbd, 0xdd, 0xe1, 0x3d, 0xbe, 0x1c, 0x5a, 0xbe,
  0xdc, 0xa2, 0x8d, 0xbe, 0x87, 0x7a, 0x1d, 0xbe, 0xf4, 0xc5, 0x9c, 0xbd,
  0x26, 0x20, 0xb4, 0xbe, 0x5a, 0x89, 0xee, 0x3d, 0x24, 0x7d, 0x1b, 0xbd,
  0xa3, 0xb3, 0x2f, 0xbe, 0x64, 0x53, 0x01, 0xbe, 0xb1, 0x1b, 0x43, 0xbc,
  0xa3, 0xd9, 0x85, 0x3d, 0x4e, 0x13, 0xb8, 0xbd, 0x70, 0xcc, 0x2c, 0x39,
  0x02, 0xa9, 0xc3, 0xbd, 0x37, 0x99, 0x96, 0xbe, 0x87, 0x61, 0x17, 0xbe,
  0x54, 0x15, 0x08, 0x3e, 0xa4, 0x19, 0x82, 0xbd, 0x7f, 0xb3, 0x90, 0xbd,
  0x75, 0x9a, 0x91, 0xbe, 0xd4, 0x63, 0xa5, 0xbe, 0xad, 0x79, 0x65, 0x3c,
  0x2b, 0x6d, 0x8f, 0xbd, 0x1a, 0x30, 0x71, 0xbe, 0x36, 0xeb, 0x8e, 0xbe,
  0xe4, 0x8e, 0x9d, 0x3d, 0xb2, 0x92, 0xc5, 0x3d, 0x61, 0xbf, 0x9d, 0x3e,
  0xf2, 0x03, 0x01, 0xbe, 0xd9, 0xc8, 0xd1, 0xbd, 0x8f, 0xdd, 0xfe, 0x3d,
  0x35, 0x5f, 0x65, 0xbe, 0x63, 0xec, 0x62, 0x3e, 0x02, 0x9c, 0xd4, 0xbd,
  0x5c, 0xd8, 0xb7, 0x3d, 0xcc, 0xf0, 0x16, 0xbe, 0xe0, 0x3d, 0xc1, 0xbd,
  0x24, 0x0b, 0xed, 0xbd, 0xec, 0x23, 0x65, 0xbe, 0x71, 0x69, 0x2b, 0x3e,
  0xe1, 0x60, 0xd6, 0x3d, 0x68, 0x08, 0xae, 0xbd, 0xcc, 0x91, 0xc5, 0xbd,
  0x9b, 0x3c, 0x9f, 0x3e, 0x27, 0x79, 0x0f, 0xbe, 0x9b, 0xc5, 0xc1, 0x3d,
  0x4a, 0x65, 0x6f, 0x3e, 0x33, 0x06, 0x59, 0xbe, 0xc0, 0x66, 0x6d, 0x3e,
  0x98, 0x78, 0x68, 0x3d, 0x43, 0x4f, 0xa9, 0x3e, 0x0d, 0xeb, 0x3b, 0x3d,
  0x69, 0x52, 0x4a, 0xbc, 0x8d, 0x13, 0x26, 0xbe, 0x89, 0xde, 0x51, 0x3e,
  0x97, 0x99, 0xc2, 0xbb, 0x32, 0xc8, 0xb6, 0xbd, 0xdd, 0x97, 0x35, 0x3d,
  0x82, 0x58, 0x6f, 0x3e, 0x66, 0xe3, 0x57, 0xbe, 0xee, 0x14, 0x5f, 0xbe,
  0xf9, 0xbb, 0xc7, 0xba, 0xd8, 0x4c, 0x93, 0xbd, 0x72, 0xaf, 0x47, 0xbd,
  0x11, 0x58, 0xe6, 0xbd, 0x40, 0x97, 0x1e, 0xbe, 0x04, 0x59, 0x69, 0xbd,
  0x01, 0x79, 0x4d, 0x3c, 0x60, 0x90, 0xf6, 0xbd, 0xea, 0x22, 0x5b, 0x3d,
  0x4c, 0xa3, 0x1a, 0x3b, 0x6a, 0x49, 0x5d, 0xbd, 0xde, 0x6c, 0x2e, 0x3e,
  0x91, 0x88, 0xae, 0x3c, 0x98, 0x2e, 0x50, 0x3d, 0x70, 0x1d, 0xb3, 0xbd,
  0x4a, 0x68, 0x65, 0xbe, 0x60, 0x38, 0x83, 0xbe, 0xac, 0x1d, 0x91, 0xbe,
  0x59, 0x5c, 0x5b, 0x3d, 0xf0, 0x79, 0x20, 0xbd, 0x8f, 0xfc, 0xc7, 0xbd,
  0x7d, 0x62, 0x3c, 0xbe, 0x8b, 0xb0, 0x21, 0xbe, 0xe8, 0x56, 0x45, 0xbe,
  0x13, 0xfc, 0xe0, 0xbd, 0x21, 0xc7, 0x5d, 0xbe, 0x3b, 0x6c, 0x35, 0xbe,
  0x59, 0x94, 0x16, 0xbe, 0x85, 0x8c, 0x8c, 0xbd, 0x9b, 0x0d, 0x09, 0x3e,
  0x7e, 0x08, 0xfb, 0xbd, 0xd8, 0x90, 0x3c, 0xbe, 0xfa, 0x04, 0x70, 0xbe,
  0x95, 0x06, 0xc6, 0xbd, 0x52, 0xcb, 0x1d, 0x3d, 0x20, 0xd2, 0x10, 0x3e,
  0x54, 0x3b, 0x4c, 0x3e, 0x55, 0x0b, 0x2c, 0x3d, 0x1b, 0x96, 0x78, 0x3d,
  0x84, 0x6b, 0x13, 0xbe, 0xa7, 0x85, 0xc8, 0xbc, 0xb1, 0x7a, 0x0a, 0xbe,
  0x78, 0xda, 0xd7, 0x3d, 0x0e, 0x32, 0xf1, 0xbd, 0x84, 0xfc, 0xb6, 0x3c,
  0x75, 0xbd, 0x51, 0xbe, 0x3a, 0x48, 0x67, 0xbd, 0x91, 0xe2, 0x98, 0xbd,
  0x94, 0xa0, 0x07, 0xbd, 0x8b, 0xfc, 0xa7, 0xbd, 0x53, 0x88, 0x8d, 0x3d,
  0x26, 0x6f, 0x21, 0x3e, 0x33, 0x98, 0x53, 0xbd, 0xd5, 0x37, 0x0a, 0xbe,
  0x8c, 0x39, 0xcb, 0x3d, 0x16, 0x19, 0x41, 0xbe, 0x97, 0x1d, 0xef, 0x3c,
  0x20, 0x55, 0xdb, 0xbd, 0x85, 0xcb, 0xd6, 0x3d, 0xa8, 0xdf, 0xb1, 0x3d,
  0xba, 0xc9, 0x51, 0x3d, 0x33, 0x73, 0x12, 0x3d, 0xaf, 0xf6, 0xf6, 0xbd,
  0x28, 0xb4, 0xc0, 0xbd, 0x4a, 0x50, 0x5f, 0xbe, 0x67, 0x32, 0x82, 0xbe,
  0xc1, 0xf7, 0xa6, 0xbb, 0x8d, 0xee, 0x01, 0x3d, 0x1c, 0x19, 0x35, 0xbd,
  0x14, 0xd4, 0x90, 0x3d, 0x2e, 0xe4, 0xf6, 0x3d, 0x79, 0x18, 0x09, 0xbe,
  0xeb, 0x62, 0x4f, 0xbe, 0x35, 0xc7, 0x64, 0x3d, 0x2d, 0x71, 0xb7, 0xbd,
  0x78, 0xb7, 0x4e, 0xbc, 0x11, 0xea, 0x70, 0x3b, 0xba, 0x06, 0x46, 0x3d,
  0xbc, 0x34, 0xe3, 0x3d, 0xcb, 0x2c, 0x41, 0xbe, 0xde, 0x02, 0x42, 0xbd,
  0x16, 0x06, 0x2a, 0xbe, 0x2a, 0x87, 0xc1, 0xbc, 0x9c, 0x3c, 0x68, 0x3d,
  0xf2, 0x63, 0x2d, 0x3d, 0x0d, 0x74, 0xc1, 0xbd, 0x02, 0xbd, 0x92, 0xbd,
  0x9b, 0x15, 0x6f, 0xbb, 0xf5, 0x95, 0x39, 0xbe, 0x2d, 0xb9, 0xc5, 0xbd,
  0x81, 0x6d, 0x27, 0xbe, 0x17, 0x62, 0x85, 0xbe, 0x63, 0x9a, 0x18, 0xbd,
  0x0c, 0x25, 0x61, 0xbe, 0x2b, 0x66, 0x56, 0xbd, 0x65, 0x23, 0xeb, 0xbc,
  0x12, 0x3f, 0x1f, 0xbe, 0x87, 0xad, 0x01, 0xbd, 0xf3, 0xa2, 0xce, 0xbd,
  0xb8, 0xa8, 0x2e, 0x3e, 0x6e, 0xd2, 0x99, 0x3d, 0x68, 0xdb, 0x62, 0x3d,
  0x1b, 0xcb, 0x35, 0xbe, 0x7d, 0xe3, 0x27, 0xbe, 0x5b, 0xba, 0xa8, 0xbd,
  0x67, 0x86, 0x05, 0x3d, 0x39, 0x10, 0x65, 0xbe, 0x08, 0x50, 0x97, 0xbc,
  0x78, 0x0a, 0xd2, 0xbd, 0x32, 0x05, 0xb3, 0x3c, 0x6c, 0x6a, 0x3f, 0xbe,
  0xb9, 0x26, 0x4d, 0xbe, 0xaa, 0x65, 0xd9, 0x3c, 0xfc, 0x97, 0x95, 0xbd,
  0x4d, 0x41, 0x41, 0x3c, 0x99, 0xed, 0xcb, 0xbd, 0xeb, 0x2b, 0xc1, 0xbd,
  0x62, 0x65, 0x44, 0xbd, 0x1f, 0x3d, 0x6c, 0xbe, 0x48, 0xf2, 0x15, 0xbd,
  0x77, 0x6e, 0x3d, 0xbe, 0xd8, 0x89, 0xf4, 0x3c, 0x4a, 0xfe, 0xff, 0xff,
  0x10, 0x00, 0x00, 0x00, 0x05, 0x00, 0x00, 0x00, 0x14, 0x00, 0x00, 0x00,
  0x2c, 0x00, 0x00, 0x00, 0x02, 0x00, 0x00, 0x00, 0x10, 0x00, 0x00, 0x00,
  0x70, 0x00, 0x00, 0x00, 0x17, 0x00, 0x00, 0x00, 0x73, 0x65, 0x71, 0x75,
  0x65, 0x6e, 0x74, 0x69, 0x61, 0x6c, 0x2f, 0x64, 0x65, 0x6e, 0x73, 0x65,
  0x2f, 0x4d, 0x61, 0x74, 0x4d, 0x75, 0x6c, 0x00, 0x38, 0xfe, 0xff, 0xff,
  0x2e, 0xff, 0xff, 0xff, 0x04, 0x00, 0x00, 0x00, 0x08, 0x00, 0x00, 0x00,
  0xff, 0xff, 0xff, 0xff, 0x70, 0x00, 0x00, 0x00, 0x00, 0x00, 0x0e, 0x00,
  0x18, 0x00, 0x08, 0x00, 0x07, 0x00, 0x0c, 0x00, 0x10, 0x00, 0x14, 0x00,
  0x0e, 0x00, 0x00, 0x00, 0x00, 0x00, 0x00, 0x02, 0x10, 0x00, 0x00, 0x00,
  0x04, 0x00, 0x00, 0x00, 0x10, 0x00, 0x00, 0x00, 0x2c, 0x00, 0x00, 0x00,
  0x01, 0x00, 0x00, 0x00, 0x02, 0x00, 0x00, 0x00, 0x18, 0x00, 0x00, 0x00,
  0x73, 0x65, 0x71, 0x75, 0x65, 0x6e, 0x74, 0x69, 0x61, 0x6c, 0x2f, 0x66,
  0x6c, 0x61, 0x74, 0x74, 0x65, 0x6e, 0x2f, 0x43, 0x6f, 0x6e, 0x73, 0x74,
  0x00, 0x00, 0x00, 0x00, 0xa0, 0xfe, 0xff, 0xff, 0x96, 0xff, 0xff, 0xff,
  0x04, 0x00, 0x00, 0x00, 0x0c, 0x00, 0x00, 0x00, 0xd3, 0x9a, 0xc0, 0xbf,
  0xcb, 0x6e, 0xa2, 0xbf, 0x5e, 0x75, 0xfc, 0x3f, 0x0a, 0xff, 0xff, 0xff,
  0x10, 0x00, 0x00, 0x00, 0x03, 0x00, 0x00, 0x00, 0x10, 0x00, 0x00, 0x00,
  0x3c, 0x00, 0x00, 0x00, 0x01, 0x00, 0x00, 0x00, 0x03, 0x00, 0x00, 0x00,
  0x29, 0x00, 0x00, 0x00, 0x73, 0x65, 0x71, 0x75, 0x65, 0x6e, 0x74, 0x69,
  0x61, 0x6c, 0x2f, 0x64, 0x65, 0x6e, 0x73, 0x65, 0x5f, 0x31, 0x2f, 0x42,
  0x69, 0x61, 0x73, 0x41, 0x64, 0x64, 0x2f, 0x52, 0x65, 0x61, 0x64, 0x56,
  0x61, 0x72, 0x69, 0x61, 0x62, 0x6c, 0x65, 0x4f, 0x70, 0x00, 0x00, 0x00,
  0x60, 0xff, 0xff, 0xff, 0x00, 0x00, 0x06, 0x00, 0x08, 0x00, 0x04, 0x00,
  0x06, 0x00, 0x00, 0x00, 0x04, 0x00, 0x00, 0x00, 0x40, 0x00, 0x00, 0x00,
  0x6f, 0xeb, 0x33, 0x3f, 0xbc, 0x9c, 0x63, 0x3f, 0xeb, 0x76, 0x84, 0x40,
  0x2b, 0xaa, 0x47, 0x3f, 0xba, 0xa3, 0x93, 0xbf, 0x4c, 0x77, 0x56, 0xbe,
  0x96, 0xde, 0x41, 0x3f, 0xce, 0x31, 0x60, 0xbd, 0x41, 0x1d, 0x55, 0x40,
  0x47, 0x0a, 0xd1, 0xbf, 0xa0, 0x60, 0x51, 0xbf, 0xad, 0xf8, 0x31, 0xbf,
  0x15, 0xcf, 0x1e, 0x3f, 0xf9, 0x24, 0x0a, 0x3e, 0xe6, 0xc7, 0xb6, 0xbe,
  0xa2, 0x33, 0x39, 0xbe, 0xae, 0xff, 0xff, 0xff, 0x10, 0x00, 0x00, 0x00,
  0x02, 0x00, 0x00, 0x00, 0x10, 0x00, 0x00, 0x00, 0x3c, 0x00, 0x00, 0x00,
  0x01, 0x00, 0x00, 0x00, 0x10, 0x00, 0x00, 0x00, 0x27, 0x00, 0x00, 0x00,
  0x73, 0x65, 0x71, 0x75, 0x65, 0x6e, 0x74, 0x69, 0x61, 0x6c, 0x2f, 0x64,
  0x65, 0x6e, 0x73, 0x65, 0x2f, 0x42, 0x69, 0x61, 0x73, 0x41, 0x64, 0x64,
  0x2f, 0x52, 0x65, 0x61, 0x64, 0x56, 0x61, 0x72, 0x69, 0x61, 0x62, 0x6c,
  0x65, 0x4f, 0x70, 0x00, 0x04, 0x00, 0x06, 0x00, 0x04, 0x00, 0x00, 0x00,
  0x00, 0x00, 0x0e, 0x00, 0x14, 0x00, 0x04, 0x00, 0x00, 0x00, 0x08, 0x00,
  0x0c, 0x00, 0x10, 0x00, 0x0e, 0x00, 0x00, 0x00, 0x10, 0x00, 0x00, 0x00,
  0x01, 0x00, 0x00, 0x00, 0x1c, 0x00, 0x00, 0x00, 0x2c, 0x00, 0x00, 0x00,
  0x04, 0x00, 0x00, 0x00, 0x01, 0x00, 0x00, 0x00, 0x40, 0x00, 0x00, 0x00,
  0x03, 0x00, 0x00, 0x00, 0x01, 0x00, 0x00, 0x00, 0x0c, 0x00, 0x00, 0x00,
  0x63, 0x6f, 0x6e, 0x76, 0x32, 0x64, 0x5f, 0x69, 0x6e, 0x70, 0x75, 0x74,
  0x00, 0x00, 0x00, 0x00, 0xfc, 0xff, 0xff, 0xff, 0x04, 0x00, 0x04, 0x00,
  0x04, 0x00, 0x00, 0x00

};


unsigned int model_tflite_len = 12316;// Fill the int in `src/model.cc` here